const unsigned char new_sin_predictor_tflite[] = {
  0x20, 0x00, 0x00, 0x00, 0x54, 0x46, 0x4c, 0x33, 0x00, 0x00, 0x00, 0x00,
  0x14, 0x00, 0x20, 0x00, 0x1c, 0x00, 0x18, 0x00, 0x14, 0x00, 0x10, 0x00,
  0x0c, 0x00, 0x00, 0x00, 0x08, 0x00, 0x04, 0x00, 0x14, 0x00, 0x00, 0x00,
  0x1c, 0x00, 0x00, 0x00, 0x98, 0x00, 0x00, 0x00, 0x18, 0x01, 0x00, 0x00,
  0x5c, 0x16, 0x00, 0x00, 0x6c, 0x16, 0x00, 0x00, 0xd4, 0x28, 0x00, 0x00,
  0x03, 0x00, 0x00, 0x00, 0x01, 0x00, 0x00, 0x00, 0x10, 0x00, 0x00, 0x00,
  0x00, 0x00, 0x0a, 0x00, 0x10, 0x00, 0x0c, 0x00, 0x08, 0x00, 0x04, 0x00,
  0x0a, 0x00, 0x00, 0x00, 0x0c, 0x00, 0x00, 0x00, 0x1c, 0x00, 0x00, 0x00,
  0x3c, 0x00, 0x00, 0x00, 0x0f, 0x00, 0x00, 0x00, 0x73, 0x65, 0x72, 0x76,
  0x69, 0x6e, 0x67, 0x5f, 0x64, 0x65, 0x66, 0x61, 0x75, 0x6c, 0x74, 0x00,
  0x01, 0x00, 0x00, 0x00, 0x04, 0x00, 0x00, 0x00, 0x68, 0xff, 0xff, 0xff,
  0x09, 0x00, 0x00, 0x00, 0x04, 0x00, 0x00, 0x00, 0x08, 0x00, 0x00, 0x00,
  0x6f, 0x75, 0x74, 0x70, 0x75, 0x74, 0x5f, 0x30, 0x00, 0x00, 0x00, 0x00,
  0x01, 0x00, 0x00, 0x00, 0x04, 0x00, 0x00, 0x00, 0x36, 0xea, 0xff, 0xff,
  0x04, 0x00, 0x00, 0x00, 0x0f, 0x00, 0x00, 0x00, 0x6b, 0x65, 0x72, 0x61,
  0x73, 0x5f, 0x74, 0x65, 0x6e, 0x73, 0x6f, 0x72, 0x5f, 0x31, 0x38, 0x00,
  0x03, 0x00, 0x00, 0x00, 0x5c, 0x00, 0x00, 0x00, 0x2c, 0x00, 0x00, 0x00,
  0x04, 0x00, 0x00, 0x00, 0xb8, 0xff, 0xff, 0xff, 0x0d, 0x00, 0x00, 0x00,
  0x04, 0x00, 0x00, 0x00, 0x13, 0x00, 0x00, 0x00, 0x43, 0x4f, 0x4e, 0x56,
  0x45, 0x52, 0x53, 0x49, 0x4f, 0x4e, 0x5f, 0x4d, 0x45, 0x54, 0x41, 0x44,
  0x41, 0x54, 0x41, 0x00, 0xdc, 0xff, 0xff, 0xff, 0x0c, 0x00, 0x00, 0x00,
  0x04, 0x00, 0x00, 0x00, 0x13, 0x00, 0x00, 0x00, 0x6d, 0x69, 0x6e, 0x5f,
  0x72, 0x75, 0x6e, 0x74, 0x69, 0x6d, 0x65, 0x5f, 0x76, 0x65, 0x72, 0x73,
  0x69, 0x6f, 0x6e, 0x00, 0x08, 0x00, 0x0c, 0x00, 0x08, 0x00, 0x04, 0x00,
  0x08, 0x00, 0x00, 0x00, 0x0b, 0x00, 0x00, 0x00, 0x04, 0x00, 0x00, 0x00,
  0x13, 0x00, 0x00, 0x00, 0x6d, 0x69, 0x6e, 0x5f, 0x72, 0x75, 0x6e, 0x74,
  0x69, 0x6d, 0x65, 0x5f, 0x76, 0x65, 0x72, 0x73, 0x69, 0x6f, 0x6e, 0x00,
  0x0e, 0x00, 0x00, 0x00, 0x40, 0x15, 0x00, 0x00, 0x38, 0x15, 0x00, 0x00,
  0x24, 0x15, 0x00, 0x00, 0xcc, 0x14, 0x00, 0x00, 0xbc, 0x13, 0x00, 0x00,
  0xac, 0x03, 0x00, 0x00, 0x9c, 0x02, 0x00, 0x00, 0xcc, 0x00, 0x00, 0x00,
  0xc4, 0x00, 0x00, 0x00, 0xbc, 0x00, 0x00, 0x00, 0xb4, 0x00, 0x00, 0x00,
  0x94, 0x00, 0x00, 0x00, 0x74, 0x00, 0x00, 0x00, 0x04, 0x00, 0x00, 0x00,
  0x12, 0xeb, 0xff, 0xff, 0x04, 0x00, 0x00, 0x00, 0x60, 0x00, 0x00, 0x00,
  0x0c, 0x00, 0x00, 0x00, 0x08, 0x00, 0x0e, 0x00, 0x08, 0x00, 0x04, 0x00,
  0x08, 0x00, 0x00, 0x00, 0x10, 0x00, 0x00, 0x00, 0x28, 0x00, 0x00, 0x00,
  0x00, 0x00, 0x06, 0x00, 0x08, 0x00, 0x04, 0x00, 0x06, 0x00, 0x00, 0x00,
  0x04, 0x00, 0x00, 0x00, 0x01, 0x00, 0x00, 0x00, 0xeb, 0x03, 0x00, 0x00,
  0x0c, 0x00, 0x18, 0x00, 0x14, 0x00, 0x10, 0x00, 0x0c, 0x00, 0x04, 0x00,
  0x0c, 0x00, 0x00, 0x00, 0x0b, 0x25, 0x4a, 0x9b, 0xab, 0x2e, 0x52, 0xca,
  0x02, 0x00, 0x00, 0x00, 0x02, 0x00, 0x00, 0x00, 0x04, 0x00, 0x00, 0x00,
  0x06, 0x00, 0x00, 0x00, 0x32, 0x2e, 0x31, 0x38, 0x2e, 0x30, 0x00, 0x00,
  0x7e, 0xeb, 0xff, 0xff, 0x04, 0x00, 0x00, 0x00, 0x10, 0x00, 0x00, 0x00,
  0x00, 0x00, 0x00, 0x00, 0x00, 0x00, 0x00, 0x00, 0x00, 0x00, 0x00, 0x00,
  0x00, 0x00, 0x00, 0x00, 0x9a, 0xeb, 0xff, 0xff, 0x04, 0x00, 0x00, 0x00,
  0x10, 0x00, 0x00, 0x00, 0x31, 0x2e, 0x31, 0x34, 0x2e, 0x30, 0x00, 0x00,
  0x00, 0x00, 0x00, 0x00, 0x00, 0x00, 0x00, 0x00, 0x24, 0xeb, 0xff, 0xff,
  0x28, 0xeb, 0xff, 0xff, 0x2c, 0xeb, 0xff, 0xff, 0xc2, 0xeb, 0xff, 0xff,
  0x04, 0x00, 0x00, 0x00, 0xc0, 0x01, 0x00, 0x00, 0xac, 0x1e, 0x21, 0x33,
  0xe4, 0xcc, 0x81, 0x72, 0x32, 0x46, 0x37, 0x61, 0x7f, 0xd8, 0xcf, 0x5a,
  0x1d, 0xcc, 0xd0, 0x97, 0x7f, 0xf1, 0x81, 0x8d, 0x50, 0x1c, 0x22, 0x1b,
  0x61, 0x8c, 0x2a, 0x40, 0x22, 0x81, 0x6e, 0xfb, 0x81, 0x3c, 0x60, 0x64,
  0x04, 0x1e, 0x08, 0x23, 0x9d, 0xbf, 0x81, 0xb1, 0x85, 0x7f, 0x33, 0x46,
  0x3d, 0xc1, 0xc9, 0xaa, 0xa0, 0x46, 0x40, 0x81, 0x8f, 0x8d, 0xaf, 0xdf,
  0x18, 0xf5, 0x70, 0x31, 0x81, 0xe5, 0x06, 0x1e, 0xd8, 0x20, 0xae, 0xe8,
  0x7f, 0x17, 0xee, 0x25, 0x28, 0xd4, 0x9f, 0x7f, 0xfb, 0x81, 0xbf, 0xb6,
  0x67, 0xeb, 0x6a, 0x81, 0x5f, 0xeb, 0xb9, 0x4a, 0x3b, 0x85, 0xd1, 0x35,
  0x1f, 0xc4, 0x60, 0xe1, 0x81, 0x66, 0x81, 0xa1, 0x5e, 0x3a, 0xb1, 0x55,
  0x87, 0xff, 0x65, 0x41, 0x48, 0x01, 0x81, 0xff, 0x60, 0xb4, 0xb4, 0x42,
  0x06, 0x81, 0x96, 0x45, 0x11, 0x81, 0x3d, 0x0c, 0xed, 0x4c, 0x75, 0x6e,
  0xf2, 0x7f, 0x38, 0xc4, 0x38, 0xd0, 0x7f, 0x4b, 0x3f, 0x8a, 0x35, 0xd0,
  0x08, 0xf6, 0x7f, 0xe1, 0x43, 0xc0, 0x39, 0x04, 0x2f, 0x3d, 0x12, 0x7f,
  0x1d, 0x3d, 0xcf, 0x2d, 0x05, 0x34, 0xd0, 0x81, 0xe7, 0x44, 0x08, 0x4f,
  0x21, 0x84, 0x7f, 0x7f, 0x8b, 0xb8, 0xdb, 0x4f, 0x98, 0x41, 0xbe, 0x3a,
  0x14, 0x0a, 0x95, 0x81, 0x36, 0xf6, 0xf9, 0x2a, 0x50, 0xb2, 0xc0, 0x7f,
  0x16, 0xf6, 0xcf, 0x5f, 0xdc, 0xc0, 0x7f, 0xc7, 0xbe, 0xd7, 0xb6, 0xce,
  0x81, 0x2a, 0xeb, 0xe4, 0xd0, 0x2c, 0x1a, 0xf9, 0x81, 0xe7, 0x2d, 0x3e,
  0x14, 0x7f, 0x79, 0x42, 0x4d, 0x2d, 0x73, 0x55, 0x65, 0xdf, 0x81, 0x0f,
  0xdb, 0x5e, 0xdb, 0x0a, 0xf1, 0x81, 0x28, 0xbe, 0xf4, 0x5b, 0xed, 0x87,
  0x7f, 0x96, 0x1e, 0x40, 0x85, 0x33, 0x7f, 0x72, 0xc1, 0x06, 0x7f, 0xca,
  0x49, 0x9d, 0x18, 0x1d, 0x3d, 0xd0, 0x24, 0x15, 0x7f, 0x23, 0xf5, 0x17,
  0x99, 0x81, 0x40, 0x55, 0x97, 0xe8, 0xf2, 0x01, 0xec, 0x08, 0xc8, 0x7f,
  0xcc, 0x50, 0x1f, 0x0b, 0x81, 0x32, 0xb2, 0x96, 0x7f, 0xc5, 0x9d, 0x25,
  0xf7, 0x53, 0xd1, 0xf1, 0x4a, 0xec, 0x7f, 0xec, 0xb8, 0x8c, 0x91, 0x31,
  0x94, 0xa4, 0x23, 0x7f, 0x9e, 0xd0, 0x62, 0xcb, 0x27, 0x9f, 0x7f, 0x97,
  0x5d, 0x17, 0x3c, 0x17, 0xe9, 0x7f, 0x07, 0xd1, 0x70, 0xa4, 0xe5, 0x7f,
  0xa3, 0x0e, 0x22, 0xfb, 0xa4, 0x67, 0x39, 0x81, 0xfd, 0xac, 0x2d, 0xf6,
  0x6e, 0x24, 0x81, 0x7f, 0x54, 0xec, 0x08, 0xdd, 0x56, 0xf5, 0xfe, 0x02,
  0xd5, 0x0c, 0x30, 0x56, 0x81, 0x3c, 0xe9, 0xd9, 0x2c, 0x11, 0x0e, 0x81,
  0x22, 0x8d, 0xee, 0x60, 0x94, 0x81, 0x5b, 0x28, 0xf0, 0xb4, 0x12, 0xff,
  0x75, 0x81, 0xad, 0x7f, 0xbe, 0xb2, 0xc5, 0xf2, 0x6b, 0x42, 0xad, 0xaa,
  0x8c, 0xa4, 0x7f, 0xdd, 0x9e, 0xb2, 0x08, 0xe6, 0xe7, 0x7f, 0xe5, 0xf6,
  0x14, 0x7f, 0x45, 0x54, 0x82, 0xae, 0x90, 0x57, 0x7f, 0xa9, 0x1e, 0x8e,
  0x41, 0x32, 0x9d, 0x1b, 0x4c, 0xa7, 0xb0, 0x7f, 0x2e, 0xfe, 0xff, 0x36,
  0x2b, 0x75, 0x81, 0x35, 0x0d, 0xcd, 0x41, 0x51, 0x06, 0x81, 0x7f, 0x64,
  0xef, 0xcf, 0x46, 0xdf, 0x3f, 0xf1, 0xa1, 0x81, 0x9e, 0x4f, 0x19, 0xe2,
  0x8e, 0xed, 0xff, 0xff, 0x04, 0x00, 0x00, 0x00, 0x00, 0x01, 0x00, 0x00,
  0x3e, 0xf7, 0xff, 0xff, 0xe8, 0x03, 0x00, 0x00, 0xbf, 0xfa, 0xff, 0xff,
  0x2f, 0x0f, 0x00, 0x00, 0xfd, 0xfd, 0xff, 0xff, 0x1c, 0xe9, 0xff, 0xff,
  0xf9, 0xf6, 0xff, 0xff, 0x29, 0xe2, 0xff, 0xff, 0x5c, 0x09, 0x00, 0x00,
  0xa6, 0xdd, 0xff, 0xff, 0x34, 0x18, 0x00, 0x00, 0x8b, 0x05, 0x00, 0x00,
  0xcc, 0xba, 0xff, 0xff, 0x89, 0xf8, 0xff, 0xff, 0x0e, 0x06, 0x00, 0x00,
  0x93, 0x0e, 0x00, 0x00, 0x5d, 0xf9, 0xff, 0xff, 0x32, 0xf1, 0xff, 0xff,
  0x46, 0xf2, 0xff, 0xff, 0x6f, 0xfc, 0xff, 0xff, 0x7d, 0x11, 0x00, 0x00,
  0xe6, 0xd8, 0xff, 0xff, 0x27, 0x06, 0x00, 0x00, 0x91, 0x17, 0x00, 0x00,
  0x14, 0x06, 0x00, 0x00, 0xc7, 0xe3, 0xff, 0xff, 0x3b, 0xe5, 0xff, 0xff,
  0x9c, 0x04, 0x00, 0x00, 0x29, 0x07, 0x00, 0x00, 0x42, 0xf5, 0xff, 0xff,
  0x74, 0x07, 0x00, 0x00, 0x06, 0xf9, 0xff, 0xff, 0xb3, 0x02, 0x00, 0x00,
  0xb8, 0xe5, 0xff, 0xff, 0x5b, 0x12, 0x00, 0x00, 0x2d, 0xeb, 0xff, 0xff,
  0x4b, 0xfa, 0xff, 0xff, 0x9e, 0xf1, 0xff, 0xff, 0x23, 0x0d, 0x00, 0x00,
  0x8c, 0x0d, 0x00, 0x00, 0x7e, 0x03, 0x00, 0x00, 0x75, 0x09, 0x00, 0x00,
  0xb3, 0xee, 0xff, 0xff, 0x74, 0xe3, 0xff, 0xff, 0xfc, 0xf0, 0xff, 0xff,
  0x4d, 0xd9, 0xff, 0xff, 0x08, 0x09, 0x00, 0x00, 0x64, 0x25, 0x00, 0x00,
  0xbd, 0xfe, 0xff, 0xff, 0x4b, 0x09, 0x00, 0x00, 0xb1, 0x0a, 0x00, 0x00,
  0xd1, 0x1c, 0x00, 0x00, 0x9d, 0x21, 0x00, 0x00, 0x5e, 0x0a, 0x00, 0x00,
  0x83, 0xf5, 0xff, 0xff, 0x34, 0xf3, 0xff, 0xff, 0xe2, 0xe6, 0xff, 0xff,
  0xcb, 0xc0, 0xff, 0xff, 0x8b, 0xfc, 0xff, 0xff, 0x73, 0x06, 0x00, 0x00,
  0xb6, 0xe0, 0xff, 0xff, 0xfb, 0xfe, 0xff, 0xff, 0xf3, 0x03, 0x00, 0x00,
  0xa2, 0xcd, 0xff, 0xff, 0x9a, 0xee, 0xff, 0xff, 0x04, 0x00, 0x00, 0x00,
  0x00, 0x10, 0x00, 0x00, 0xf6, 0xf5, 0x14, 0xe2, 0x00, 0xf4, 0xfd, 0x34,
  0x1c, 0x1f, 0xfd, 0xf1, 0xca, 0xb2, 0x08, 0xd8, 0xff, 0xe2, 0x81, 0x07,
  0xef, 0x62, 0x08, 0x45, 0x27, 0x5c, 0x32, 0x1c, 0xc8, 0xda, 0x17, 0xf4,
  0x0e, 0x3c, 0x4f, 0xf6, 0x18, 0xeb, 0xf5, 0xdf, 0x40, 0xea, 0x2a, 0x05,
  0xb5, 0xaf, 0x6d, 0xc6, 0xdd, 0xf3, 0x1a, 0xe7, 0xe4, 0xbc, 0xb5, 0x1b,
  0x01, 0x28, 0x34, 0xff, 0xc7, 0x03, 0x03, 0xff, 0xf6, 0xfc, 0x13, 0xed,
  0x81, 0xf2, 0x05, 0x10, 0xf0, 0x02, 0xfb, 0x2a, 0xff, 0xa4, 0x1c, 0xe1,
  0x00, 0xed, 0xf0, 0xe5, 0xf2, 0xd7, 0x0b, 0x09, 0xc3, 0x8f, 0x08, 0x2b,
  0x95, 0x02, 0xfb, 0x0d, 0xf5, 0x1b, 0x0c, 0x05, 0x0d, 0x0c, 0xf0, 0xd9,
  0xfb, 0xdc, 0xe0, 0x1f, 0x00, 0x60, 0x4f, 0x1d, 0x1a, 0x05, 0x2b, 0xe9,
  0xfd, 0xf0, 0xea, 0xee, 0x00, 0xe2, 0x1d, 0x97, 0x18, 0x01, 0xe7, 0x08,
  0x15, 0x1f, 0x32, 0x12, 0x22, 0xcd, 0x1a, 0xe4, 0x1c, 0x15, 0x0d, 0x10,
  0xd7, 0x30, 0x10, 0xd5, 0xeb, 0xab, 0x20, 0xf1, 0xe8, 0xbd, 0x05, 0x24,
  0x7c, 0xb5, 0xb9, 0x7f, 0xff, 0x37, 0xe6, 0xf1, 0x18, 0xe8, 0x25, 0xf0,
  0x41, 0xd2, 0xca, 0x3a, 0xb6, 0x2f, 0xed, 0xfd, 0x27, 0x4d, 0xec, 0xff,
  0xcd, 0xfc, 0x1a, 0xc4, 0x3f, 0xdf, 0x1e, 0xe6, 0x33, 0x06, 0x27, 0xe0,
  0xf3, 0x03, 0x19, 0x21, 0xf6, 0xe8, 0x17, 0x2f, 0x81, 0x10, 0x22, 0x17,
  0x21, 0xdd, 0xeb, 0xe4, 0x02, 0x54, 0xf1, 0x38, 0x2b, 0x71, 0xb6, 0xc9,
  0xff, 0x23, 0x00, 0x19, 0xd0, 0xc8, 0x3e, 0x17, 0x26, 0xeb, 0xe6, 0xec,
  0x18, 0x07, 0xdc, 0x1c, 0x35, 0x08, 0xfe, 0x10, 0x3c, 0x3e, 0x4a, 0xea,
  0xbf, 0x15, 0xe8, 0xdc, 0x22, 0x21, 0x07, 0xf3, 0x2f, 0xc1, 0xc7, 0x0d,
  0x0f, 0x1e, 0x52, 0xac, 0x96, 0xf4, 0x20, 0x11, 0xc3, 0x1c, 0xf6, 0xf4,
  0x7f, 0x15, 0x08, 0xf2, 0xef, 0xe0, 0x02, 0x24, 0xa1, 0xf2, 0x04, 0xf9,
  0xee, 0xfb, 0xea, 0x1c, 0xf7, 0x64, 0x12, 0x19, 0x4a, 0x18, 0xbb, 0x2f,
  0xb6, 0x26, 0xe1, 0xf5, 0x13, 0xcd, 0x06, 0x18, 0x26, 0x0f, 0x12, 0x26,
  0xce, 0xee, 0xe5, 0x2c, 0xe6, 0xeb, 0x9a, 0x1c, 0x19, 0x18, 0xed, 0x0e,
  0x12, 0x08, 0xcd, 0xd1, 0xc1, 0xf2, 0x07, 0x40, 0x3a, 0x4c, 0xfc, 0xed,
  0x18, 0xf0, 0x00, 0x19, 0x9e, 0xd7, 0x1b, 0xd4, 0xfd, 0x0d, 0xd6, 0x34,
  0x08, 0xfb, 0xe8, 0x41, 0x20, 0xb5, 0x06, 0xd9, 0xce, 0xb7, 0xfb, 0xe9,
  0xb9, 0x3d, 0x23, 0xe7, 0xef, 0xed, 0xf9, 0xf3, 0x04, 0xd2, 0x07, 0x38,
  0xc1, 0x27, 0x46, 0xea, 0x36, 0xfe, 0xfe, 0x22, 0xb9, 0x89, 0x18, 0x3c,
  0xe6, 0x20, 0x13, 0xde, 0x07, 0x10, 0x2c, 0x17, 0x2e, 0xb8, 0x01, 0x81,
  0xb0, 0xce, 0xd9, 0xf4, 0x10, 0xf6, 0x15, 0x04, 0x1b, 0x20, 0xe1, 0x10,
  0xf9, 0xec, 0xf2, 0xbb, 0xf9, 0x1f, 0xfd, 0x31, 0xf6, 0x81, 0xac, 0x04,
  0x09, 0x0d, 0x07, 0xdc, 0xcc, 0x87, 0x34, 0xf3, 0xea, 0xf8, 0xdd, 0x09,
  0xef, 0x38, 0x34, 0x02, 0x42, 0x02, 0x03, 0x11, 0x01, 0x24, 0x00, 0xcd,
  0x49, 0xcc, 0x33, 0x1d, 0xe5, 0xe2, 0xc3, 0xf6, 0x19, 0xf1, 0xc8, 0xfa,
  0xe7, 0xf3, 0x30, 0xd7, 0xd2, 0xbb, 0xe0, 0x22, 0x14, 0x02, 0xd9, 0xdd,
  0x21, 0xf3, 0xf3, 0x1a, 0x06, 0xfb, 0xdf, 0x04, 0xf3, 0x2d, 0x3f, 0xb5,
  0x11, 0x7f, 0xd3, 0xea, 0x01, 0x48, 0xf7, 0x29, 0x19, 0x3b, 0x0b, 0x15,
  0x0d, 0x09, 0x2a, 0x1a, 0x04, 0x3e, 0xd7, 0x19, 0x24, 0x25, 0x49, 0xcc,
  0x4e, 0xfa, 0xdc, 0x01, 0xc4, 0x05, 0x5a, 0x17, 0xe0, 0xe5, 0xf9, 0x44,
  0xe3, 0x0c, 0x0f, 0x29, 0x00, 0x12, 0xf2, 0xfe, 0xf1, 0xcb, 0x17, 0xec,
  0xf7, 0x06, 0xa5, 0xeb, 0x36, 0xf4, 0xfa, 0x14, 0xf6, 0x42, 0x0b, 0xfb,
  0x0b, 0xfb, 0xf2, 0xd7, 0xfe, 0xb2, 0xdf, 0xfb, 0xdb, 0x26, 0xf9, 0xf8,
  0x09, 0x62, 0xc8, 0x2e, 0x9d, 0xd0, 0xf1, 0x0c, 0x07, 0xdb, 0xe4, 0xef,
  0x05, 0xdc, 0xca, 0x1d, 0x2d, 0x1c, 0xf0, 0xc6, 0x0f, 0x81, 0xef, 0x2f,
  0xe4, 0xe5, 0x01, 0xf1, 0xd3, 0x62, 0x2f, 0x1b, 0x1e, 0xed, 0x13, 0xf2,
  0xe6, 0x16, 0xf3, 0xe3, 0x03, 0x20, 0xeb, 0xde, 0x48, 0xcc, 0x30, 0xfa,
  0x2c, 0xde, 0xd8, 0xeb, 0xd7, 0xf3, 0xda, 0x27, 0x04, 0xca, 0xa6, 0x30,
  0x1b, 0x81, 0x1f, 0xf5, 0x20, 0x09, 0x37, 0xb6, 0xbc, 0x13, 0xe6, 0xf4,
  0xe7, 0x35, 0x74, 0x0f, 0xe7, 0xdb, 0x16, 0xeb, 0xe5, 0x04, 0xd4, 0x0f,
  0xea, 0x95, 0x2e, 0xb2, 0x12, 0x0b, 0xfb, 0x15, 0x28, 0x46, 0xf1, 0x01,
  0x2b, 0x28, 0x17, 0x29, 0x08, 0x22, 0x0e, 0xfe, 0xda, 0xf3, 0x13, 0x02,
  0x7f, 0x0f, 0x0e, 0x1f, 0x01, 0xd5, 0xfe, 0xff, 0x19, 0xca, 0x09, 0x47,
  0x0b, 0xac, 0xd8, 0xe3, 0xe9, 0xc4, 0x1d, 0xa7, 0x25, 0xdc, 0xb4, 0x30,
  0x49, 0x0f, 0x04, 0xf8, 0xf0, 0xe5, 0x2d, 0xcd, 0xa7, 0x0e, 0xf3, 0x3d,
  0xfa, 0x43, 0xbc, 0x5e, 0x18, 0xd7, 0xb7, 0xa1, 0x28, 0x02, 0x29, 0xb2,
  0x15, 0x1e, 0xff, 0xcb, 0x3b, 0xf3, 0xb5, 0x36, 0xed, 0xf1, 0x08, 0x02,
  0xf9, 0x2c, 0x05, 0xe7, 0x32, 0xf9, 0x0b, 0x1f, 0x0f, 0x16, 0xf1, 0x55,
  0x81, 0x63, 0x44, 0xb5, 0x10, 0xa2, 0x53, 0x1b, 0x3d, 0xda, 0xfa, 0xc4,
  0x6c, 0xf1, 0xf2, 0xef, 0x0d, 0x25, 0xff, 0x12, 0x1e, 0x1f, 0x68, 0xf9,
  0x18, 0xfe, 0xef, 0x12, 0x56, 0x19, 0xc4, 0xbd, 0xe9, 0xc9, 0x19, 0x00,
  0x1e, 0x25, 0xc7, 0x14, 0xef, 0x1c, 0x25, 0xbf, 0x0b, 0xfb, 0xfc, 0xb1,
  0xe1, 0xf2, 0xfe, 0xbd, 0x10, 0xf3, 0xec, 0x00, 0x4e, 0xf8, 0x19, 0x2d,
  0x20, 0x33, 0xe9, 0x45, 0x24, 0x16, 0x31, 0xec, 0xf9, 0xf3, 0x81, 0xea,
  0xdf, 0x30, 0xeb, 0xe7, 0x65, 0xb5, 0x34, 0x1a, 0xc7, 0xec, 0xf9, 0x04,
  0xf1, 0x08, 0x44, 0xfc, 0x1c, 0xe6, 0xc7, 0xd3, 0x11, 0x14, 0xf2, 0x14,
  0x37, 0x0d, 0xdb, 0x35, 0xe8, 0x26, 0xda, 0x10, 0x11, 0xcf, 0x31, 0x03,
  0xd2, 0x43, 0x13, 0x1c, 0xea, 0xf7, 0x0e, 0xde, 0x01, 0xed, 0x0f, 0xf6,
  0x1f, 0xfe, 0xf1, 0x0a, 0xf1, 0xfe, 0xf2, 0x19, 0x05, 0xd3, 0x13, 0x01,
  0x0b, 0x17, 0x7f, 0xfd, 0x04, 0xd1, 0x0d, 0xfd, 0x01, 0xc6, 0xfc, 0xe0,
  0x13, 0xec, 0xfd, 0x0c, 0xf6, 0x15, 0x11, 0x04, 0x11, 0x12, 0x20, 0x11,
  0x2a, 0x14, 0x04, 0x16, 0x08, 0xf5, 0x00, 0x0e, 0x13, 0x01, 0x0e, 0x00,
  0xf7, 0x16, 0xe6, 0xff, 0xff, 0xfd, 0x38, 0xe0, 0xd2, 0x06, 0x0e, 0x07,
  0xf7, 0xf5, 0x17, 0xe1, 0xc0, 0x09, 0x13, 0x09, 0xf7, 0xf4, 0x22, 0x30,
  0x1c, 0x0b, 0x1f, 0xc6, 0xf0, 0x7f, 0x7b, 0x20, 0x00, 0x87, 0x0b, 0xf0,
  0xf9, 0xf6, 0x18, 0xdf, 0x0b, 0xea, 0x1f, 0x04, 0xec, 0x4f, 0xec, 0xe6,
  0xcc, 0xfd, 0xc6, 0x09, 0xf9, 0x1c, 0x08, 0xfc, 0xd0, 0xe2, 0x6b, 0xee,
  0x0e, 0x0e, 0x04, 0x03, 0x0b, 0x22, 0x24, 0xf8, 0xd5, 0x0d, 0xcc, 0x39,
  0xfe, 0xe5, 0xee, 0x1a, 0x11, 0xfb, 0x2e, 0xe9, 0x81, 0x10, 0x00, 0x1e,
  0x10, 0x08, 0x1c, 0xe8, 0xd6, 0xa5, 0x0a, 0x1d, 0x0a, 0x36, 0x1b, 0x24,
  0xfb, 0xe7, 0x1d, 0xff, 0x16, 0x47, 0xfd, 0xd5, 0xdb, 0xf2, 0xea, 0x01,
  0x1f, 0xd7, 0xff, 0x27, 0xd1, 0x14, 0x15, 0xfc, 0x4f, 0x50, 0xde, 0x13,
  0xb5, 0x9d, 0x43, 0x15, 0x03, 0x27, 0x38, 0x00, 0xc9, 0xd5, 0xfe, 0xff,
  0x1c, 0xf1, 0x12, 0x26, 0xe4, 0x18, 0x22, 0xef, 0xf7, 0x09, 0x07, 0xf1,
  0x9b, 0x0d, 0x00, 0xe7, 0xea, 0xff, 0xed, 0xe4, 0xe3, 0x99, 0x11, 0xc0,
  0xf2, 0xe7, 0x7f, 0x23, 0x1a, 0x43, 0x05, 0x1b, 0x24, 0xec, 0xcc, 0xd5,
  0x16, 0xfa, 0x17, 0x25, 0x11, 0xfa, 0xc4, 0xfa, 0x21, 0xed, 0x0a, 0x03,
  0x12, 0xe9, 0x13, 0x12, 0x27, 0x06, 0xe4, 0xf2, 0xd4, 0xee, 0x1b, 0xd9,
  0x05, 0x1f, 0x21, 0xfb, 0xf4, 0x00, 0xe0, 0xfa, 0x5c, 0xfc, 0x1d, 0x0f,
  0xed, 0xe8, 0xf5, 0x09, 0xc2, 0x01, 0x04, 0x0e, 0x16, 0xef, 0x10, 0xda,
  0x31, 0xc8, 0x10, 0x0a, 0x11, 0xae, 0x75, 0xdf, 0xfd, 0x47, 0xf0, 0x31,
  0x2d, 0x17, 0xd4, 0x09, 0x04, 0x16, 0x03, 0x02, 0x0b, 0x01, 0x4c, 0xfa,
  0x30, 0x06, 0xf7, 0x08, 0xe3, 0x1f, 0x1e, 0xde, 0x7f, 0x10, 0xec, 0xd0,
  0xfb, 0xe1, 0x15, 0xf7, 0x09, 0xd1, 0x25, 0xe3, 0x18, 0x19, 0xda, 0xad,
  0xcd, 0x0d, 0xeb, 0xeb, 0x09, 0x12, 0x00, 0xfa, 0x9b, 0xe1, 0x08, 0xfd,
  0xf7, 0x16, 0x02, 0x07, 0xd5, 0x34, 0x07, 0xd4, 0xfb, 0xeb, 0x4b, 0x02,
  0x05, 0xfb, 0x10, 0xe9, 0xb9, 0xbf, 0xd7, 0x81, 0xd9, 0x12, 0x13, 0x05,
  0xfa, 0xfc, 0xc0, 0x16, 0xc6, 0xe2, 0x15, 0xec, 0x04, 0x11, 0xf0, 0x07,
  0xf9, 0xfc, 0xed, 0x16, 0xfc, 0x0b, 0xfb, 0x0d, 0xe5, 0x1c, 0x2d, 0x00,
  0xef, 0x14, 0xe1, 0x0f, 0x16, 0xf9, 0xf5, 0xf5, 0x01, 0x07, 0x0b, 0xf3,
  0x00, 0xf1, 0x07, 0x0b, 0xf8, 0xf3, 0x03, 0xe3, 0x26, 0x1a, 0x00, 0x22,
  0xf9, 0xe2, 0xd7, 0xed, 0xfb, 0xe2, 0xf7, 0x0a, 0x12, 0x1e, 0xf4, 0xde,
  0xe9, 0x1b, 0x0f, 0x04, 0xf3, 0x2b, 0x05, 0xf1, 0x02, 0xfe, 0x0d, 0x00,
  0xdc, 0x0f, 0xdf, 0x0a, 0xda, 0xac, 0x7f, 0xe2, 0x04, 0xeb, 0xe5, 0xf7,
  0x01, 0x1c, 0xd3, 0x10, 0xfc, 0xf6, 0xef, 0xf8, 0x0b, 0xf2, 0xf9, 0x04,
  0xf3, 0x15, 0xd4, 0x19, 0x5a, 0xd3, 0xf0, 0xf3, 0xfc, 0x2c, 0xf9, 0x1e,
  0x39, 0x81, 0xe8, 0x05, 0x0e, 0x46, 0x1e, 0xf8, 0xf1, 0xd6, 0xff, 0x29,
  0xf7, 0xe4, 0x02, 0x2c, 0x45, 0x10, 0xf5, 0x18, 0x12, 0x2d, 0x12, 0x1a,
  0x27, 0xd8, 0x02, 0x0d, 0x08, 0x27, 0x17, 0x12, 0xbf, 0xe4, 0xcb, 0x1d,
  0xea, 0xef, 0xe5, 0x1d, 0x16, 0x3e, 0x28, 0xf1, 0xe3, 0x09, 0x00, 0xc0,
  0x27, 0xfd, 0xe0, 0xf0, 0xf9, 0xf5, 0xf4, 0x04, 0xe4, 0x00, 0xff, 0x04,
  0xff, 0x10, 0x05, 0xf3, 0xce, 0x0a, 0x07, 0x04, 0xfa, 0xbc, 0x03, 0xfb,
  0x11, 0x2a, 0x0b, 0x0c, 0x36, 0x2b, 0xdf, 0x2a, 0xf6, 0xf8, 0xf6, 0x13,
  0xf7, 0x12, 0x16, 0x02, 0xfb, 0x1b, 0xe5, 0xf9, 0x08, 0x10, 0x08, 0xe1,
  0x09, 0x3a, 0x81, 0xe7, 0x0b, 0xfa, 0xef, 0xf2, 0x1b, 0xf8, 0xef, 0xe6,
  0xeb, 0x0e, 0x03, 0xeb, 0x07, 0xfc, 0x09, 0x03, 0xfe, 0x05, 0x16, 0x18,
  0x24, 0x0b, 0xf9, 0xf1, 0xf3, 0x29, 0x15, 0xd7, 0x20, 0x20, 0xf5, 0xf4,
  0x0a, 0xfb, 0xf2, 0xf4, 0xef, 0xca, 0x03, 0x06, 0xdb, 0xc1, 0x1d, 0xfd,
  0xfe, 0x10, 0x06, 0xfa, 0x02, 0x07, 0x35, 0x09, 0xe9, 0x06, 0x0e, 0x13,
  0x26, 0xfc, 0x07, 0xf4, 0x3e, 0xf1, 0x7f, 0xe4, 0x10, 0xf2, 0xee, 0xea,
  0xde, 0x08, 0x1d, 0xf9, 0x22, 0xdf, 0xfe, 0xf2, 0x0f, 0x2e, 0xef, 0x09,
  0xea, 0x02, 0xfb, 0xf3, 0xd4, 0x05, 0xff, 0x14, 0xf2, 0xc5, 0xf0, 0xe7,
  0x26, 0x22, 0xd2, 0xff, 0xf2, 0x81, 0xe9, 0xfd, 0x10, 0xfe, 0x0d, 0xdd,
  0xfa, 0xe7, 0xb7, 0xef, 0x4f, 0x1e, 0xf6, 0xfa, 0x25, 0xbe, 0x12, 0x22,
  0xc7, 0xf0, 0xf6, 0x01, 0xb2, 0x12, 0xee, 0x07, 0x03, 0x31, 0x66, 0x08,
  0xe1, 0xfe, 0xf5, 0xe9, 0xfd, 0x0a, 0xdb, 0xed, 0xec, 0xe2, 0xda, 0x07,
  0xfb, 0x20, 0xff, 0xe9, 0xf5, 0x00, 0xe1, 0xf3, 0xfb, 0x28, 0x17, 0xf3,
  0xdd, 0x2c, 0x03, 0x3f, 0xea, 0x83, 0xd0, 0x33, 0x2b, 0xd3, 0x13, 0xd6,
  0x0b, 0x8b, 0xfb, 0x2c, 0xcc, 0x17, 0x08, 0x49, 0xd3, 0xe8, 0x05, 0xfb,
  0xf2, 0x05, 0x7f, 0xe2, 0xf3, 0xf8, 0x1b, 0xf9, 0xf7, 0x11, 0xca, 0xdd,
  0x4d, 0xf4, 0xca, 0xde, 0x23, 0xdc, 0x3b, 0x24, 0x2d, 0x21, 0x28, 0xe1,
  0x2e, 0x07, 0xf3, 0x04, 0xa7, 0x42, 0x1e, 0xf6, 0xf8, 0xff, 0x10, 0x01,
  0xfd, 0x0b, 0x0b, 0x0c, 0xf9, 0x10, 0xf2, 0x26, 0xeb, 0x31, 0xf8, 0xe7,
  0x06, 0x0b, 0x7f, 0x01, 0xf2, 0xda, 0x08, 0x07, 0xda, 0xe6, 0x20, 0xf4,
  0xdb, 0xf6, 0x05, 0xfd, 0x01, 0xf9, 0xf9, 0x12, 0x00, 0xf4, 0xfd, 0x06,
  0x12, 0x08, 0x12, 0x04, 0x15, 0x2f, 0x4c, 0x10, 0x0d, 0x0a, 0xfc, 0xf3,
  0xed, 0xfb, 0xe3, 0xf8, 0xf8, 0xfc, 0xf3, 0x1b, 0xf0, 0x08, 0x07, 0x02,
  0x0c, 0xf2, 0xdc, 0xfd, 0x20, 0x2d, 0x02, 0x17, 0x04, 0x14, 0xf3, 0xef,
  0xfe, 0x54, 0x13, 0x13, 0x17, 0xc7, 0x7f, 0xf2, 0x0d, 0x34, 0xe0, 0xd1,
  0x03, 0x9f, 0x15, 0x3c, 0x08, 0xe3, 0x11, 0x00, 0x1d, 0xed, 0xf9, 0xff,
  0x1f, 0xe5, 0x06, 0x0b, 0xed, 0xd2, 0x25, 0xd2, 0x53, 0x0d, 0xc0, 0xc9,
  0x34, 0xda, 0x31, 0xf7, 0x1d, 0xf1, 0x12, 0xe9, 0x30, 0xf7, 0x20, 0x3b,
  0xfa, 0xf1, 0x1a, 0x1f, 0xf6, 0xf9, 0xe6, 0x16, 0x24, 0xff, 0xe6, 0xe0,
  0x0d, 0xe2, 0xf8, 0xc9, 0x41, 0x77, 0x10, 0x41, 0x0d, 0x05, 0x9d, 0x1d,
  0xd9, 0x23, 0xed, 0xcc, 0x07, 0xc7, 0xc3, 0xc6, 0xd3, 0x0c, 0xfd, 0xfd,
  0x0b, 0xf5, 0xe6, 0xdd, 0xe5, 0xef, 0xed, 0xdf, 0x0e, 0x00, 0x0d, 0x34,
  0x75, 0x5f, 0x7f, 0x12, 0x07, 0xf2, 0xc8, 0x04, 0x00, 0xcb, 0x0c, 0x1c,
  0x33, 0x16, 0xe2, 0xbe, 0x38, 0xb8, 0xee, 0x12, 0x0c, 0x19, 0xee, 0xf4,
  0xf8, 0xf8, 0x16, 0xf9, 0xfb, 0xce, 0xe7, 0xe6, 0xf8, 0x15, 0x22, 0xc4,
  0xf3, 0x0e, 0x1c, 0x01, 0xf5, 0xd3, 0x1b, 0x07, 0x13, 0x9d, 0x2d, 0xc1,
  0xe7, 0x13, 0x18, 0x09, 0xf6, 0xf5, 0x0f, 0xe6, 0xf4, 0xff, 0x0a, 0xe3,
  0x11, 0xd8, 0xf8, 0x11, 0xa8, 0x57, 0x7f, 0x01, 0xeb, 0x06, 0x14, 0x11,
  0xf6, 0xfc, 0xdd, 0x04, 0x39, 0x01, 0x0e, 0xe3, 0x35, 0x1b, 0xf8, 0xf4,
  0xeb, 0xf3, 0x04, 0xfd, 0xa3, 0xe8, 0x13, 0x2c, 0xdd, 0xda, 0x1d, 0x21,
  0x2f, 0x81, 0x15, 0x1c, 0xfe, 0xe3, 0x83, 0x16, 0x26, 0x72, 0xe5, 0x38,
  0x50, 0xf3, 0xc8, 0xeb, 0xd1, 0x1e, 0xe6, 0x0e, 0xff, 0xe9, 0x3f, 0x22,
  0x04, 0xb4, 0xd8, 0xcf, 0xd5, 0xd4, 0xee, 0xd8, 0x4d, 0xb7, 0xef, 0xbf,
  0x02, 0xeb, 0xd8, 0xe7, 0x03, 0xd9, 0x2a, 0x0d, 0x32, 0xe7, 0x12, 0x50,
  0x0a, 0xec, 0xf7, 0xf1, 0xdf, 0xf7, 0x11, 0x16, 0x07, 0xfc, 0xf1, 0xfa,
  0x03, 0xf7, 0x0a, 0xfa, 0x03, 0x95, 0xf0, 0x24, 0xf4, 0x3f, 0x93, 0xfb,
  0xfd, 0xea, 0xf8, 0x07, 0xde, 0x7f, 0x04, 0x02, 0x16, 0x0c, 0xe4, 0x0d,
  0xed, 0xeb, 0xd7, 0x2c, 0x1f, 0xfc, 0x16, 0x0f, 0x10, 0x31, 0xf9, 0xe5,
  0xce, 0xfa, 0x41, 0x0f, 0xd6, 0x15, 0xd7, 0x11, 0xea, 0x13, 0x28, 0xfb,
  0xf0, 0x15, 0xd6, 0xf0, 0xd4, 0x1b, 0x09, 0xf5, 0xf4, 0x07, 0x0f, 0x0c,
  0x98, 0x0e, 0x17, 0xf4, 0xf4, 0x16, 0xe0, 0xdf, 0x06, 0x50, 0x05, 0x02,
  0x11, 0x40, 0x95, 0xe6, 0x04, 0x1f, 0xf0, 0xe6, 0x23, 0xe3, 0x07, 0x2a,
  0xd6, 0x0c, 0x08, 0x0b, 0xfc, 0x02, 0xe3, 0xf3, 0x27, 0xe2, 0x2c, 0xf8,
  0xdd, 0xfa, 0xed, 0x29, 0x33, 0x01, 0x7f, 0xcd, 0x1f, 0xe6, 0x21, 0xe8,
  0x1f, 0xfe, 0x03, 0x13, 0x0f, 0xf0, 0x2c, 0x92, 0xe7, 0x11, 0x0d, 0xeb,
  0xe0, 0x11, 0x18, 0x06, 0xb0, 0xff, 0xe0, 0xf3, 0xf4, 0xdc, 0xea, 0x11,
  0xf0, 0xd0, 0x15, 0x33, 0xf5, 0xd3, 0xfc, 0xe7, 0x00, 0xcc, 0xf3, 0xd9,
  0xdd, 0x9c, 0xec, 0xb1, 0xe5, 0x05, 0xf6, 0x04, 0x00, 0xc9, 0xb8, 0x11,
  0xf8, 0x17, 0x44, 0x0d, 0xf6, 0x30, 0x1e, 0xdf, 0xdb, 0x81, 0x64, 0x20,
  0xf9, 0xf7, 0x16, 0x33, 0xc7, 0xfd, 0xfd, 0x0b, 0xcb, 0xff, 0xde, 0x0d,
  0x17, 0x2c, 0x1b, 0x05, 0x08, 0x05, 0xf3, 0x08, 0xd0, 0xee, 0xfb, 0x03,
  0x13, 0x13, 0xfd, 0xee, 0x1f, 0xf7, 0x1b, 0x16, 0x0a, 0x10, 0x7f, 0x0d,
  0x07, 0xfb, 0x03, 0x16, 0xec, 0xd1, 0x14, 0xf5, 0x08, 0x12, 0xfa, 0x0d,
  0x0e, 0x22, 0x09, 0xe7, 0xee, 0xfe, 0x0d, 0xf8, 0x17, 0xf8, 0xec, 0xfe,
  0x25, 0xe0, 0xea, 0xee, 0x02, 0x06, 0x06, 0x1c, 0x07, 0x0d, 0xfb, 0x07,
  0x12, 0x09, 0xf1, 0xf9, 0xf4, 0x04, 0xfc, 0xfe, 0x1e, 0xf1, 0xd0, 0x0b,
  0x7f, 0xe6, 0xe7, 0x0b, 0x13, 0x2c, 0xff, 0x26, 0x5e, 0xee, 0xe9, 0xfc,
  0x1d, 0xcf, 0xf8, 0x09, 0xff, 0x1d, 0xfe, 0xf9, 0xb9, 0x14, 0xe3, 0xc9,
  0xe8, 0x0d, 0xfc, 0xe2, 0x1a, 0x31, 0xbd, 0x16, 0x1d, 0xc2, 0xec, 0x28,
  0x03, 0x17, 0xcf, 0x17, 0x1e, 0xe0, 0x23, 0xcf, 0xdf, 0xf0, 0xd2, 0xe4,
  0xe0, 0x15, 0xd2, 0xdb, 0xf2, 0x1d, 0x19, 0x9f, 0xc2, 0xd8, 0xd9, 0x01,
  0x1e, 0x06, 0xe6, 0xf2, 0xeb, 0xe4, 0xfc, 0xf7, 0x00, 0xdd, 0xdf, 0xd1,
  0x29, 0xb5, 0x21, 0x05, 0x05, 0xcc, 0x7f, 0xea, 0xe0, 0xf0, 0x01, 0xe7,
  0xb2, 0x2b, 0x17, 0xfb, 0x13, 0x03, 0x11, 0xf8, 0xf8, 0x33, 0xbb, 0x25,
  0xb9, 0xfa, 0x19, 0x00, 0x09, 0x28, 0xe0, 0x0f, 0xd3, 0x1a, 0x0c, 0x05,
  0xff, 0xe9, 0xea, 0x19, 0xe0, 0xf7, 0xfb, 0xf3, 0x00, 0xd2, 0xef, 0xc9,
  0xc4, 0x05, 0x0f, 0x08, 0x0e, 0xfc, 0xcf, 0x1d, 0x42, 0x06, 0xfa, 0x13,
  0xfd, 0x3f, 0xe1, 0x01, 0xdd, 0xe6, 0xec, 0xfd, 0x02, 0xe9, 0x64, 0xe3,
  0x0d, 0x17, 0xf3, 0x03, 0xc2, 0x4d, 0xf8, 0x25, 0xc8, 0xe1, 0xf3, 0x0b,
  0x0c, 0x26, 0x41, 0xe8, 0x35, 0x18, 0xed, 0xff, 0xd6, 0xf1, 0x24, 0xe9,
  0x39, 0x81, 0x3f, 0x0e, 0xe9, 0x04, 0x35, 0xeb, 0x28, 0xf4, 0xf4, 0xec,
  0xfc, 0x1c, 0xeb, 0x47, 0x24, 0xfd, 0xdf, 0x0f, 0x05, 0x1d, 0x22, 0x13,
  0xcf, 0x17, 0x1a, 0xf0, 0xfe, 0x54, 0x17, 0x47, 0x14, 0x63, 0x02, 0xeb,
  0x0f, 0x66, 0x59, 0xff, 0xe8, 0x3c, 0x12, 0xe5, 0x90, 0x51, 0xfd, 0x08,
  0xc1, 0xbc, 0xf6, 0xe3, 0xe7, 0xf3, 0x81, 0x64, 0xe6, 0xe7, 0x22, 0x25,
  0x12, 0x24, 0xce, 0xd9, 0xc2, 0x5c, 0xda, 0xfc, 0xff, 0x21, 0x32, 0x04,
  0x10, 0xd0, 0xac, 0x02, 0xc1, 0xff, 0x5e, 0x26, 0xcc, 0xf0, 0x05, 0xfc,
  0x0d, 0x08, 0xd4, 0x00, 0x3e, 0xef, 0xf9, 0x06, 0x14, 0xed, 0xd6, 0xfb,
  0x0b, 0x3e, 0x2a, 0x03, 0xed, 0xc7, 0x41, 0xfd, 0x14, 0x54, 0x0c, 0x29,
  0xda, 0xd3, 0x2b, 0x0a, 0xf7, 0xf7, 0x08, 0xf8, 0x11, 0xf9, 0xee, 0xfb,
  0x07, 0xf8, 0x14, 0xf5, 0x08, 0xf1, 0xe6, 0xc7, 0xd8, 0xd4, 0x78, 0x42,
  0xe3, 0x07, 0x1a, 0x32, 0x07, 0xea, 0xe5, 0xdc, 0xdf, 0xed, 0xf5, 0x81,
  0x12, 0x5d, 0xf1, 0xf1, 0xfb, 0xfd, 0x0d, 0x0c, 0x60, 0x19, 0xf0, 0xe8,
  0x0e, 0x15, 0xf7, 0x0e, 0x04, 0xb6, 0xe0, 0x00, 0xfe, 0x13, 0x81, 0x04,
  0x0f, 0xd0, 0xfc, 0x17, 0x22, 0x01, 0x1b, 0x44, 0x07, 0xe5, 0x0f, 0x06,
  0x0a, 0x0e, 0x25, 0x00, 0x1d, 0x07, 0xe2, 0x06, 0x18, 0x0d, 0xf2, 0x0f,
  0x0b, 0x2e, 0x4e, 0x09, 0x17, 0xf9, 0xd1, 0xd4, 0x08, 0x12, 0x31, 0xfc,
  0xe1, 0xfe, 0x10, 0xf9, 0x02, 0x01, 0x16, 0x0e, 0x02, 0xe3, 0xc3, 0x1d,
  0x05, 0x04, 0x04, 0xff, 0xf8, 0xa4, 0xd3, 0xb2, 0x2a, 0x31, 0xe1, 0x1e,
  0xea, 0x36, 0x81, 0x0a, 0xd5, 0x06, 0x0b, 0x06, 0x02, 0x57, 0x1f, 0xad,
  0x8d, 0x0a, 0x27, 0xd1, 0xe0, 0xfb, 0xa8, 0xb5, 0xcd, 0xd4, 0x14, 0xea,
  0x46, 0xfe, 0xc8, 0x24, 0xd7, 0xa0, 0x6d, 0x26, 0xd3, 0x0e, 0xcc, 0x0b,
  0x20, 0x49, 0xd3, 0xdb, 0x2d, 0xb2, 0x13, 0xa2, 0xa1, 0x08, 0xf0, 0xf5,
  0xf0, 0x0d, 0x19, 0x0d, 0xf4, 0x0c, 0xff, 0xd0, 0x0d, 0xf3, 0x0b, 0xe2,
  0x07, 0x4b, 0x08, 0x30, 0xf6, 0xdc, 0x7f, 0xf6, 0x0e, 0x06, 0xf7, 0xdb,
  0x1e, 0x32, 0xda, 0x22, 0xdb, 0xfa, 0xfe, 0xfa, 0xf9, 0x2b, 0x25, 0x1b,
  0x12, 0x10, 0xe7, 0x0e, 0x07, 0x0a, 0xdd, 0x25, 0x41, 0xf5, 0x5f, 0xfb,
  0xf3, 0x04, 0xe8, 0x15, 0xee, 0x02, 0x19, 0x23, 0x21, 0x05, 0x02, 0x4d,
  0x14, 0x1a, 0xed, 0x17, 0x23, 0x1d, 0xbe, 0x11, 0x81, 0x0b, 0xf5, 0x1d,
  0x09, 0xf9, 0x24, 0x08, 0x5d, 0x11, 0xf1, 0xfe, 0x18, 0xcb, 0xfa, 0x01,
  0xe8, 0x26, 0x15, 0x0e, 0xef, 0x7d, 0x2f, 0xc6, 0x13, 0xea, 0xe6, 0xef,
  0xe9, 0x24, 0xfb, 0xcd, 0xfe, 0xe9, 0x0b, 0x27, 0x3c, 0x0d, 0xf7, 0x0f,
  0x83, 0x02, 0x3e, 0x2e, 0x01, 0x09, 0x1f, 0xf6, 0xa4, 0xd6, 0xc4, 0x14,
  0x2c, 0x26, 0x41, 0xf8, 0x32, 0xed, 0x01, 0xfe, 0xee, 0x11, 0xd6, 0x1c,
  0xec, 0x21, 0xe1, 0xed, 0x04, 0x07, 0x01, 0xe5, 0xe6, 0xce, 0xd3, 0xc3,
  0xf6, 0xf4, 0x2b, 0x05, 0x21, 0x5b, 0xf6, 0xe0, 0xd8, 0xe1, 0x08, 0x22,
  0xc5, 0xfa, 0xe6, 0x16, 0xf1, 0x1b, 0x9e, 0x30, 0xf3, 0x26, 0xdd, 0x10,
  0xfb, 0xc9, 0xe8, 0x15, 0xe2, 0x7e, 0x81, 0x03, 0x08, 0x13, 0x12, 0xf2,
  0x23, 0x29, 0x09, 0xf2, 0x26, 0x14, 0x16, 0x26, 0x19, 0x34, 0xf5, 0x0d,
  0x18, 0x24, 0xbd, 0xfb, 0x23, 0x03, 0xfb, 0x10, 0x05, 0xfa, 0xeb, 0xa5,
  0xc3, 0x3c, 0xed, 0xe3, 0x0a, 0x5c, 0x2a, 0x08, 0xe3, 0x15, 0x13, 0xdb,
  0x40, 0x13, 0xdf, 0x35, 0x9f, 0x0b, 0x16, 0xf7, 0x1d, 0x08, 0xec, 0xb5,
  0xe6, 0x04, 0x27, 0xd7, 0xf5, 0xf3, 0xf9, 0x1f, 0x27, 0x7f, 0xdf, 0xcf,
  0x37, 0xdf, 0xcc, 0x07, 0x26, 0xfc, 0x0f, 0x23, 0x32, 0x17, 0xd2, 0x45,
  0xee, 0xee, 0xf6, 0xec, 0x08, 0x0b, 0xf6, 0x0e, 0x81, 0xf7, 0xfc, 0x0c,
  0x0e, 0x07, 0xdc, 0xf7, 0xfe, 0x0b, 0xf6, 0x17, 0xfb, 0x28, 0x28, 0x02,
  0x01, 0x20, 0x0e, 0x04, 0xf8, 0xe0, 0xe9, 0xdb, 0x0e, 0xf7, 0x14, 0x0d,
  0x0b, 0x0b, 0x10, 0x1b, 0xe9, 0xf2, 0xec, 0xfa, 0x1d, 0x1a, 0xfd, 0x1b,
  0xea, 0x01, 0xeb, 0x0e, 0xfc, 0x05, 0xf7, 0x0e, 0xf3, 0x10, 0xf9, 0xf3,
  0x14, 0xf6, 0x15, 0xe8, 0xfb, 0xe3, 0x01, 0x13, 0xd8, 0x05, 0xb0, 0x04,
  0x62, 0x81, 0xe5, 0x38, 0x12, 0xda, 0x44, 0xf6, 0x6f, 0x32, 0x0f, 0x13,
  0xda, 0x23, 0x2f, 0x1f, 0x29, 0x3d, 0x02, 0x27, 0x5e, 0x18, 0x29, 0x90,
  0x37, 0xed, 0xfb, 0xe3, 0xff, 0xe5, 0x42, 0x42, 0x2c, 0x1b, 0x55, 0x47,
  0xfb, 0x27, 0xc9, 0xf9, 0x8d, 0xda, 0x57, 0x52, 0xf6, 0x0f, 0x2a, 0x2e,
  0xda, 0xcc, 0xcb, 0xfa, 0x24, 0xf9, 0xff, 0xfe, 0x30, 0xeb, 0xfe, 0x11,
  0xfb, 0x1c, 0x18, 0xfe, 0x19, 0x14, 0x0b, 0x0d, 0x00, 0x06, 0x0c, 0x12,
  0x05, 0xb2, 0x14, 0x30, 0xe8, 0x3a, 0x81, 0x0f, 0xf1, 0x02, 0xff, 0xeb,
  0x31, 0xe8, 0x03, 0xb6, 0x28, 0xff, 0x08, 0x34, 0xff, 0x21, 0xfb, 0x16,
  0xd8, 0x0a, 0x08, 0xfc, 0x1a, 0xce, 0x17, 0xf1, 0xe4, 0xd7, 0xdb, 0xed,
  0xfe, 0xf1, 0xb3, 0x20, 0x1f, 0x12, 0x1d, 0x00, 0xf8, 0xfc, 0x04, 0x4f,
  0xec, 0xd9, 0xf5, 0x11, 0x0a, 0x09, 0xee, 0x0a, 0xe3, 0x18, 0x05, 0x0c,
  0xf1, 0xe4, 0x2d, 0xff, 0xfe, 0x17, 0xfa, 0xf5, 0xe8, 0xf1, 0x06, 0x08,
  0x12, 0x00, 0xf7, 0xee, 0xf5, 0x14, 0xff, 0x20, 0x7f, 0x0b, 0xe7, 0x03,
  0x0b, 0xfc, 0x05, 0x07, 0xef, 0x01, 0x09, 0xfd, 0x11, 0xee, 0xe7, 0xee,
  0xf8, 0xe4, 0x00, 0xee, 0xd9, 0xf8, 0xf4, 0xe0, 0xe8, 0xff, 0x18, 0xf8,
  0xfd, 0xef, 0xff, 0xeb, 0x05, 0xec, 0x03, 0xfd, 0xe8, 0x03, 0xfa, 0xf0,
  0x79, 0x03, 0x0f, 0x16, 0xf8, 0x0f, 0x12, 0xfa, 0x24, 0xcd, 0xee, 0xf2,
  0x0e, 0xf2, 0xc3, 0xdc, 0x18, 0x08, 0xef, 0xf3, 0x0e, 0xf7, 0x22, 0x21,
  0xea, 0xff, 0xf1, 0xe4, 0x0f, 0x21, 0x56, 0x0f, 0x2b, 0xf9, 0x2f, 0xe3,
  0xd8, 0x01, 0x0a, 0x05, 0xcf, 0x81, 0x5e, 0xc1, 0xf9, 0xf5, 0x05, 0x17,
  0x15, 0x02, 0x08, 0x29, 0xf8, 0xf0, 0x10, 0x60, 0xb3, 0xda, 0xfe, 0xf5,
  0x0d, 0x11, 0x20, 0xfb, 0x09, 0x06, 0xf8, 0xf8, 0x0b, 0xf2, 0x1c, 0x39,
  0x16, 0x93, 0x0c, 0x00, 0x11, 0x07, 0x2f, 0xea, 0xf3, 0xf7, 0xf4, 0x22,
  0xff, 0x94, 0x2a, 0xfc, 0xbb, 0xce, 0x15, 0xe2, 0xec, 0x04, 0x93, 0x2a,
  0x29, 0x18, 0xf7, 0xf1, 0x3a, 0x10, 0xd4, 0x0e, 0x9e, 0x95, 0x5f, 0xf1,
  0xd8, 0xf3, 0x24, 0x24, 0xc4, 0x11, 0x25, 0xf3, 0xff, 0xd9, 0x04, 0x81,
  0xef, 0x11, 0xe7, 0x1c, 0x0a, 0x0a, 0x0c, 0x01, 0x7f, 0x16, 0x09, 0xff,
  0xff, 0xeb, 0xfb, 0xe4, 0x12, 0x0a, 0xe2, 0x25, 0xf5, 0x0c, 0xd2, 0x12,
  0x0a, 0x22, 0xf9, 0xf2, 0x2c, 0x32, 0x15, 0x04, 0x38, 0x0e, 0x06, 0x03,
  0x0d, 0x04, 0x04, 0xfb, 0xe7, 0x03, 0x08, 0x0f, 0xdb, 0x07, 0x15, 0xf6,
  0xfb, 0xe3, 0xe2, 0x1d, 0x0e, 0xf9, 0x0e, 0x11, 0x14, 0x23, 0xf3, 0xf3,
  0xe7, 0xfd, 0x0d, 0x0b, 0xed, 0x1b, 0x0b, 0xef, 0x18, 0xe2, 0x21, 0x02,
  0x30, 0xf0, 0x09, 0x19, 0x06, 0x03, 0x1e, 0x15, 0xdb, 0x27, 0xfe, 0x33,
  0x0c, 0x26, 0x81, 0xf7, 0xf7, 0x1a, 0xdb, 0xef, 0xf1, 0x37, 0x04, 0xf1,
  0xfb, 0xff, 0xfc, 0x03, 0x17, 0xe7, 0x32, 0xe1, 0x20, 0x03, 0x1e, 0x04,
  0xfc, 0xfd, 0x06, 0xe6, 0xf5, 0x9f, 0x85, 0x08, 0x12, 0x01, 0x16, 0x17,
  0x2e, 0xd6, 0x37, 0x1b, 0xe2, 0x13, 0x1f, 0x3f, 0xdd, 0x37, 0xfa, 0x09,
  0xf7, 0xfc, 0xf5, 0xef, 0x5d, 0x1e, 0x18, 0x1d, 0x12, 0x25, 0x01, 0x4e,
  0xf7, 0xfa, 0x17, 0xf3, 0x06, 0xf7, 0x2e, 0x27, 0x1a, 0x52, 0xf0, 0xe5,
  0x30, 0xe5, 0x02, 0x13, 0x36, 0xf1, 0xec, 0xf4, 0x17, 0x12, 0x1b, 0xdb,
  0xe2, 0x15, 0x07, 0x08, 0xe9, 0xfa, 0x07, 0x1b, 0xad, 0xa0, 0xd9, 0x15,
  0xd8, 0x1f, 0x81, 0xcd, 0xf7, 0xd7, 0xa8, 0x16, 0xca, 0xe8, 0x3b, 0x11,
  0x0a, 0xe6, 0xf7, 0x0b, 0x11, 0xfa, 0xaa, 0xff, 0x81, 0x04, 0xf9, 0xf0,
  0x0c, 0xec, 0xec, 0xca, 0xf6, 0x0c, 0x17, 0xe6, 0x06, 0x03, 0x54, 0x00,
  0xe4, 0xd1, 0xff, 0x05, 0xc0, 0x03, 0xf5, 0xb2, 0xfd, 0xfe, 0x07, 0x1d,
  0xf3, 0xfb, 0xb6, 0x0b, 0x01, 0x09, 0xfd, 0x08, 0x12, 0xf5, 0x06, 0xf1,
  0x2a, 0xfb, 0x79, 0x0a, 0x08, 0x0c, 0x11, 0xf1, 0xf6, 0x02, 0xc8, 0x07,
  0x0e, 0x06, 0xc1, 0x8d, 0x19, 0xc1, 0x08, 0xf7, 0xee, 0xfc, 0xde, 0x04,
  0x81, 0x08, 0x0d, 0x0a, 0xfe, 0xf0, 0xf0, 0xf5, 0x14, 0xed, 0xf8, 0xe9,
  0xfb, 0x22, 0xe4, 0x1d, 0xef, 0x36, 0x12, 0xf7, 0xcc, 0xbe, 0xec, 0xdd,
  0x0e, 0xf2, 0xf6, 0x12, 0x03, 0xf7, 0xb4, 0x0f, 0x0b, 0xfa, 0xf0, 0x07,
  0x07, 0x13, 0x25, 0xe8, 0x0c, 0x1f, 0x2f, 0x1e, 0x10, 0xff, 0x1a, 0x03,
  0xc9, 0xfd, 0x0e, 0xfa, 0x1b, 0x11, 0x0d, 0xe7, 0x30, 0x2c, 0x0f, 0xf5,
  0x0c, 0xf9, 0x18, 0xf1, 0x94, 0xea, 0x03, 0xe4, 0xeb, 0xf3, 0x04, 0x17,
  0xbc, 0xa6, 0x00, 0x13, 0x19, 0xda, 0xa9, 0x04, 0xfc, 0x44, 0x07, 0xd8,
  0xca, 0xbf, 0x0f, 0xed, 0xe7, 0xfa, 0xfd, 0xfc, 0xe6, 0xe1, 0x1d, 0x03,
  0x04, 0xf9, 0xe0, 0x15, 0xf7, 0x16, 0x33, 0x24, 0xc4, 0x03, 0x7f, 0xf3,
  0xfe, 0x0c, 0xe6, 0xf1, 0xe2, 0xeb, 0x19, 0xef, 0x1c, 0x29, 0xec, 0xc2,
  0x25, 0x14, 0xeb, 0xeb, 0x04, 0x0a, 0x1a, 0xed, 0xbc, 0xe4, 0x03, 0xee,
  0x15, 0xc1, 0x19, 0x28, 0xd2, 0xa4, 0xea, 0x0b, 0xfe, 0x48, 0x99, 0xfb,
  0xe8, 0xc2, 0x08, 0x0f, 0xf1, 0x9f, 0x18, 0x09, 0x01, 0x17, 0x0b, 0xdc,
  0x06, 0x04, 0x05, 0xed, 0xef, 0x19, 0xe9, 0x02, 0x20, 0xed, 0xd1, 0x04,
  0xa9, 0x96, 0x81, 0x02, 0xf0, 0x08, 0x33, 0x01, 0xf7, 0xe6, 0x08, 0x02,
  0xec, 0xe9, 0xea, 0x2f, 0xd0, 0xde, 0xfa, 0x00, 0x0e, 0x16, 0x12, 0x14,
  0xa8, 0xc1, 0x14, 0xc3, 0xf9, 0xd6, 0x09, 0xa0, 0x2b, 0x3d, 0xdc, 0xce,
  0xe8, 0xd1, 0x23, 0xd6, 0xfe, 0x19, 0xec, 0x03, 0xb5, 0xb2, 0xbb, 0x81,
  0x27, 0xe7, 0xe9, 0xfe, 0xf3, 0xee, 0x60, 0xfe, 0x22, 0x1e, 0x47, 0x05,
  0x33, 0x21, 0xe4, 0xda, 0x08, 0x8c, 0xdc, 0xf1, 0xe6, 0x1f, 0x32, 0xf4,
  0xe0, 0x13, 0xe8, 0x25, 0xeb, 0xf9, 0x1c, 0x6b, 0xf7, 0xf2, 0x1e, 0x33,
  0x1c, 0x04, 0xee, 0x15, 0x0b, 0x11, 0xf4, 0x1d, 0x0f, 0x28, 0x0f, 0xb5,
  0x5d, 0x55, 0xff, 0xf9, 0x1f, 0xd5, 0xe9, 0xf5, 0xe6, 0xef, 0xfe, 0xe1,
  0x26, 0x2c, 0xc6, 0xbe, 0xe0, 0xf7, 0xda, 0x20, 0xfd, 0xea, 0xc0, 0x05,
  0x48, 0x2a, 0x23, 0x12, 0x13, 0xf3, 0x3b, 0xed, 0x07, 0x2f, 0xf5, 0x17,
  0xf4, 0xfe, 0x5b, 0xf9, 0xde, 0xd3, 0xe9, 0xff, 0x1f, 0x14, 0x16, 0x81,
  0xd9, 0xfc, 0x13, 0x23, 0xee, 0x15, 0x1e, 0x01, 0x45, 0x18, 0x0b, 0x06,
  0xf0, 0x09, 0x08, 0xfe, 0x03, 0xb1, 0x00, 0x06, 0xf6, 0x1a, 0xfd, 0xed,
  0x01, 0xb8, 0xef, 0x0f, 0xe5, 0x02, 0xfe, 0x0a, 0xee, 0x0e, 0xf9, 0x06,
  0xff, 0x17, 0x01, 0x18, 0xe9, 0xe0, 0xdb, 0x0e, 0x0a, 0xdb, 0xc8, 0xe0,
  0xfa, 0x27, 0xa3, 0xc3, 0xea, 0x00, 0x81, 0x08, 0x19, 0xd9, 0xd4, 0xf5,
  0x12, 0x09, 0xf3, 0xee, 0xe3, 0xba, 0x07, 0xf7, 0xfe, 0xe6, 0x08, 0x1d,
  0xac, 0x16, 0x1d, 0xe1, 0x16, 0x0f, 0xfd, 0x17, 0x12, 0x56, 0xba, 0x34,
  0xee, 0xdf, 0x7f, 0xf9, 0x0d, 0xba, 0xed, 0xd2, 0x1a, 0x23, 0x2d, 0xf9,
  0x02, 0x26, 0x04, 0xf1, 0xeb, 0x09, 0x0f, 0xaf, 0xf5, 0xfa, 0x00, 0x11,
  0x02, 0x4a, 0xeb, 0x3c, 0x36, 0x52, 0xbd, 0xd1, 0xd8, 0xff, 0xe1, 0xbf,
  0x05, 0xe2, 0x00, 0xf3, 0x3b, 0x1d, 0xd4, 0x66, 0xd6, 0x0c, 0x06, 0x10,
  0x11, 0x11, 0xfb, 0x03, 0x45, 0xe5, 0xf8, 0xe9, 0x00, 0xda, 0x07, 0x28,
  0x16, 0xc4, 0x0a, 0x2a, 0xf6, 0x1b, 0x6d, 0x05, 0x13, 0x06, 0x0c, 0xd7,
  0xcf, 0xe5, 0xde, 0xde, 0xfd, 0x14, 0x02, 0xf1, 0x01, 0xdc, 0xd5, 0xe3,
  0x18, 0xf6, 0x0d, 0xfd, 0xce, 0x19, 0xfc, 0x33, 0x24, 0xe1, 0x7f, 0x14,
  0x0a, 0xfe, 0x10, 0x19, 0x1c, 0x28, 0xeb, 0x15, 0x01, 0x12, 0x19, 0x3b,
  0xce, 0x20, 0xfd, 0x19, 0xf8, 0x21, 0xe8, 0xea, 0xf2, 0x02, 0x10, 0xfc,
  0xfd, 0xcf, 0xda, 0xf5, 0xf1, 0x85, 0x26, 0xd5, 0xee, 0x41, 0xa1, 0x10,
  0x28, 0x7f, 0x16, 0xe4, 0x04, 0xdd, 0xca, 0x1f, 0x18, 0xef, 0xff, 0x1d,
  0x1d, 0x2f, 0xbe, 0xed, 0x27, 0x01, 0x07, 0xbb, 0xc7, 0x05, 0x09, 0xd7,
  0xc3, 0x02, 0xfe, 0x31, 0xea, 0x2f, 0x42, 0x01, 0x08, 0x1a, 0x1b, 0xdc,
  0x0d, 0xfa, 0xce, 0x92, 0x07, 0x39, 0x19, 0x05, 0xa6, 0xfe, 0xff, 0xff,
  0x04, 0x00, 0x00, 0x00, 0x00, 0x01, 0x00, 0x00, 0x58, 0x0c, 0x00, 0x00,
  0x0a, 0x31, 0x00, 0x00, 0x51, 0xda, 0xff, 0xff, 0x4e, 0xc8, 0xff, 0xff,
  0xd0, 0xe7, 0xff, 0xff, 0xc7, 0x27, 0x00, 0x00, 0xa2, 0x19, 0x00, 0x00,
  0x62, 0xe6, 0xff, 0xff, 0x9f, 0x31, 0x00, 0x00, 0x26, 0xf4, 0xff, 0xff,
  0xbc, 0x0d, 0x00, 0x00, 0x02, 0xe4, 0xff, 0xff, 0xd2, 0xf0, 0xff, 0xff,
  0xd9, 0xe6, 0xff, 0xff, 0x43, 0xfe, 0xff, 0xff, 0xf1, 0xd2, 0xff, 0xff,
  0x85, 0x05, 0x00, 0x00, 0xdb, 0x09, 0x00, 0x00, 0xfb, 0x28, 0x00, 0x00,
  0x2d, 0x17, 0x00, 0x00, 0xad, 0xdf, 0xff, 0xff, 0x4d, 0x07, 0x00, 0x00,
  0x2e, 0xf9, 0xff, 0xff, 0xdb, 0x2b, 0x00, 0x00, 0xe7, 0xeb, 0xff, 0xff,
  0x9b, 0xf9, 0xff, 0xff, 0xb8, 0xed, 0xff, 0xff, 0xa9, 0x1e, 0x00, 0x00,
  0x0a, 0x04, 0x00, 0x00, 0x3e, 0x27, 0x00, 0x00, 0x24, 0xfc, 0xff, 0xff,
  0x49, 0x09, 0x00, 0x00, 0xfb, 0x11, 0x00, 0x00, 0x25, 0xe7, 0xff, 0xff,
  0x16, 0x30, 0x00, 0x00, 0xad, 0x29, 0x00, 0x00, 0x29, 0xfc, 0xff, 0xff,
  0x89, 0xe6, 0xff, 0xff, 0xf9, 0xfb, 0xff, 0xff, 0x6c, 0xe2, 0xff, 0xff,
  0xd3, 0x4f, 0x00, 0x00, 0xf8, 0xda, 0xff, 0xff, 0xd7, 0xe6, 0xff, 0xff,
  0x4c, 0xfb, 0xff, 0xff, 0x6f, 0x0e, 0x00, 0x00, 0xeb, 0xf1, 0xff, 0xff,
  0x53, 0xb7, 0xff, 0xff, 0x85, 0xe4, 0xff, 0xff, 0xba, 0x06, 0x00, 0x00,
  0x61, 0xfe, 0xff, 0xff, 0x6a, 0x1f, 0x00, 0x00, 0x6c, 0xd5, 0xff, 0xff,
  0xad, 0xdc, 0xff, 0xff, 0x1f, 0xfe, 0xff, 0xff, 0x6b, 0x2b, 0x00, 0x00,
  0x69, 0x02, 0x00, 0x00, 0x52, 0x20, 0x00, 0x00, 0x14, 0x1f, 0x00, 0x00,
  0x76, 0x11, 0x00, 0x00, 0x4c, 0xf3, 0xff, 0xff, 0x02, 0x2b, 0x00, 0x00,
  0x17, 0x03, 0x00, 0x00, 0xb6, 0xdd, 0xff, 0xff, 0x7d, 0x00, 0x00, 0x00,
  0xb2, 0xff, 0xff, 0xff, 0x04, 0x00, 0x00, 0x00, 0x40, 0x00, 0x00, 0x00,
  0xfb, 0xad, 0x12, 0x50, 0x31, 0x03, 0x08, 0xae, 0xb2, 0xa2, 0x55, 0x04,
  0x00, 0x15, 0xdc, 0xf9, 0xff, 0x3d, 0xa3, 0xb9, 0x4d, 0x3e, 0xf0, 0x5c,
  0xfd, 0xe1, 0xf8, 0xf3, 0xc0, 0x5b, 0x1e, 0xbe, 0x00, 0x00, 0x06, 0xf9,
  0xf7, 0xe2, 0x89, 0x01, 0xcc, 0xc5, 0xca, 0x4c, 0xc2, 0xde, 0x02, 0x15,
  0x7b, 0x40, 0xbf, 0x0f, 0x4c, 0x3d, 0xca, 0xdf, 0x02, 0xf0, 0x05, 0x98,
  0x7f, 0x5e, 0x1f, 0xbb, 0x00, 0x00, 0x06, 0x00, 0x08, 0x00, 0x04, 0x00,
  0x06, 0x00, 0x00, 0x00, 0x04, 0x00, 0x00, 0x00, 0x04, 0x00, 0x00, 0x00,
  0x35, 0x29, 0x00, 0x00, 0x84, 0xff, 0xff, 0xff, 0x88, 0xff, 0xff, 0xff,
  0x0f, 0x00, 0x00, 0x00, 0x4d, 0x4c, 0x49, 0x52, 0x20, 0x43, 0x6f, 0x6e,
  0x76, 0x65, 0x72, 0x74, 0x65, 0x64, 0x2e, 0x00, 0x01, 0x00, 0x00, 0x00,
  0x14, 0x00, 0x00, 0x00, 0x00, 0x00, 0x0e, 0x00, 0x18, 0x00, 0x14, 0x00,
  0x10, 0x00, 0x0c, 0x00, 0x08, 0x00, 0x04, 0x00, 0x0e, 0x00, 0x00, 0x00,
  0x14, 0x00, 0x00, 0x00, 0x1c, 0x00, 0x00, 0x00, 0xdc, 0x00, 0x00, 0x00,
  0xe0, 0x00, 0x00, 0x00, 0xe4, 0x00, 0x00, 0x00, 0x04, 0x00, 0x00, 0x00,
  0x6d, 0x61, 0x69, 0x6e, 0x00, 0x00, 0x00, 0x00, 0x03, 0x00, 0x00, 0x00,
  0x84, 0x00, 0x00, 0x00, 0x3c, 0x00, 0x00, 0x00, 0x04, 0x00, 0x00, 0x00,
  0x96, 0xff, 0xff, 0xff, 0x14, 0x00, 0x00, 0x00, 0x00, 0x00, 0x00, 0x08,
  0x10, 0x00, 0x00, 0x00, 0x14, 0x00, 0x00, 0x00, 0x04, 0x00, 0x04, 0x00,
  0x04, 0x00, 0x00, 0x00, 0x01, 0x00, 0x00, 0x00, 0x09, 0x00, 0x00, 0x00,
  0x03, 0x00, 0x00, 0x00, 0x08, 0x00, 0x00, 0x00, 0x02, 0x00, 0x00, 0x00,
  0x01, 0x00, 0x00, 0x00, 0xca, 0xff, 0xff, 0xff, 0x10, 0x00, 0x00, 0x00,
  0x00, 0x00, 0x00, 0x08, 0x10, 0x00, 0x00, 0x00, 0x14, 0x00, 0x00, 0x00,
  0xba, 0xff, 0xff, 0xff, 0x00, 0x00, 0x00, 0x01, 0x01, 0x00, 0x00, 0x00,
  0x08, 0x00, 0x00, 0x00, 0x03, 0x00, 0x00, 0x00, 0x07, 0x00, 0x00, 0x00,
  0x04, 0x00, 0x00, 0x00, 0x03, 0x00, 0x00, 0x00, 0x00, 0x00, 0x0e, 0x00,
  0x16, 0x00, 0x00, 0x00, 0x10, 0x00, 0x0c, 0x00, 0x0b, 0x00, 0x04, 0x00,
  0x0e, 0x00, 0x00, 0x00, 0x18, 0x00, 0x00, 0x00, 0x00, 0x00, 0x00, 0x08,
  0x18, 0x00, 0x00, 0x00, 0x1c, 0x00, 0x00, 0x00, 0x00, 0x00, 0x06, 0x00,
  0x08, 0x00, 0x07, 0x00, 0x06, 0x00, 0x00, 0x00, 0x00, 0x00, 0x00, 0x01,
  0x01, 0x00, 0x00, 0x00, 0x07, 0x00, 0x00, 0x00, 0x03, 0x00, 0x00, 0x00,
  0x00, 0x00, 0x00, 0x00, 0x06, 0x00, 0x00, 0x00, 0x05, 0x00, 0x00, 0x00,
  0x01, 0x00, 0x00, 0x00, 0x09, 0x00, 0x00, 0x00, 0x01, 0x00, 0x00, 0x00,
  0x00, 0x00, 0x00, 0x00, 0x0a, 0x00, 0x00, 0x00, 0xcc, 0x10, 0x00, 0x00,
  0x54, 0x10, 0x00, 0x00, 0xd8, 0x0f, 0x00, 0x00, 0x84, 0x0c, 0x00, 0x00,
  0x28, 0x09, 0x00, 0x00, 0xd4, 0x05, 0x00, 0x00, 0x78, 0x02, 0x00, 0x00,
  0xb4, 0x01, 0x00, 0x00, 0x80, 0x00, 0x00, 0x00, 0x04, 0x00, 0x00, 0x00,
  0x72, 0xef, 0xff, 0xff, 0x00, 0x00, 0x00, 0x01, 0x18, 0x00, 0x00, 0x00,
  0x20, 0x00, 0x00, 0x00, 0x3c, 0x00, 0x00, 0x00, 0x0a, 0x00, 0x00, 0x00,
  0x00, 0x00, 0x00, 0x09, 0x50, 0x00, 0x00, 0x00, 0x02, 0x00, 0x00, 0x00,
  0xff, 0xff, 0xff, 0xff, 0x01, 0x00, 0x00, 0x00, 0x5c, 0xef, 0xff, 0xff,
  0x08, 0x00, 0x00, 0x00, 0x10, 0x00, 0x00, 0x00, 0x01, 0x00, 0x00, 0x00,
  0x00, 0x00, 0x00, 0x00, 0x00, 0x00, 0x00, 0x00, 0x01, 0x00, 0x00, 0x00,
  0x31, 0x66, 0x00, 0x3c, 0x1b, 0x00, 0x00, 0x00, 0x53, 0x74, 0x61, 0x74,
  0x65, 0x66, 0x75, 0x6c, 0x50, 0x61, 0x72, 0x74, 0x69, 0x74, 0x69, 0x6f,
  0x6e, 0x65, 0x64, 0x43, 0x61, 0x6c, 0x6c, 0x5f, 0x31, 0x3a, 0x30, 0x00,
  0x02, 0x00, 0x00, 0x00, 0x01, 0x00, 0x00, 0x00, 0x01, 0x00, 0x00, 0x00,
  0xea, 0xef, 0xff, 0xff, 0x00, 0x00, 0x00, 0x01, 0x18, 0x00, 0x00, 0x00,
  0x20, 0x00, 0x00, 0x00, 0x40, 0x00, 0x00, 0x00, 0x09, 0x00, 0x00, 0x00,
  0x00, 0x00, 0x00, 0x09, 0x08, 0x01, 0x00, 0x00, 0x02, 0x00, 0x00, 0x00,
  0xff, 0xff, 0xff, 0xff, 0x40, 0x00, 0x00, 0x00, 0xd4, 0xef, 0xff, 0xff,
  0x08, 0x00, 0x00, 0x00, 0x14, 0x00, 0x00, 0x00, 0x01, 0x00, 0x00, 0x00,
  0x80, 0xff, 0xff, 0xff, 0xff, 0xff, 0xff, 0xff, 0x00, 0x00, 0x00, 0x00,
  0x01, 0x00, 0x00, 0x00, 0x7a, 0xa9, 0xb0, 0x3c, 0xcf, 0x00, 0x00, 0x00,
  0x73, 0x65, 0x71, 0x75, 0x65, 0x6e, 0x74, 0x69, 0x61, 0x6c, 0x5f, 0x33,
  0x5f, 0x31, 0x2f, 0x62, 0x61, 0x74, 0x63, 0x68, 0x5f, 0x6e, 0x6f, 0x72,
  0x6d, 0x61, 0x6c, 0x69, 0x7a, 0x61, 0x74, 0x69, 0x6f, 0x6e, 0x5f, 0x36,
  0x5f, 0x31, 0x2f, 0x62, 0x61, 0x74, 0x63, 0x68, 0x6e, 0x6f, 0x72, 0x6d,
  0x2f, 0x6d, 0x75, 0x6c, 0x5f, 0x31, 0x3b, 0x73, 0x65, 0x71, 0x75, 0x65,
  0x6e, 0x74, 0x69, 0x61, 0x6c, 0x5f, 0x33, 0x5f, 0x31, 0x2f, 0x62, 0x61,
  0x74, 0x63, 0x68, 0x5f, 0x6e, 0x6f, 0x72, 0x6d, 0x61, 0x6c, 0x69, 0x7a,
  0x61, 0x74, 0x69, 0x6f, 0x6e, 0x5f, 0x36, 0x5f, 0x31, 0x2f, 0x62, 0x61,
  0x74, 0x63, 0x68, 0x6e, 0x6f, 0x72, 0x6d, 0x2f, 0x61, 0x64, 0x64, 0x5f,
  0x31, 0x3b, 0x73, 0x65, 0x71, 0x75, 0x65, 0x6e, 0x74, 0x69, 0x61, 0x6c,
  0x5f, 0x33, 0x5f, 0x31, 0x2f, 0x64, 0x65, 0x6e, 0x73, 0x65, 0x5f, 0x31,
  0x30, 0x5f, 0x31, 0x2f, 0x4d, 0x61, 0x74, 0x4d, 0x75, 0x6c, 0x3b, 0x73,
  0x65, 0x71, 0x75, 0x65, 0x6e, 0x74, 0x69, 0x61, 0x6c, 0x5f, 0x33, 0x5f,
  0x31, 0x2f, 0x64, 0x65, 0x6e, 0x73, 0x65, 0x5f, 0x31, 0x30, 0x5f, 0x31,
  0x2f, 0x52, 0x65, 0x6c, 0x75, 0x3b, 0x73, 0x65, 0x71, 0x75, 0x65, 0x6e,
  0x74, 0x69, 0x61, 0x6c, 0x5f, 0x33, 0x5f, 0x31, 0x2f, 0x64, 0x65, 0x6e,
  0x73, 0x65, 0x5f, 0x31, 0x30, 0x5f, 0x31, 0x2f, 0x42, 0x69, 0x61, 0x73,
  0x41, 0x64, 0x64, 0x00, 0x02, 0x00, 0x00, 0x00, 0x01, 0x00, 0x00, 0x00,
  0x40, 0x00, 0x00, 0x00, 0x1a, 0xf1, 0xff, 0xff, 0x00, 0x00, 0x00, 0x01,
  0x18, 0x00, 0x00, 0x00, 0x20, 0x00, 0x00, 0x00, 0x40, 0x00, 0x00, 0x00,
  0x08, 0x00, 0x00, 0x00, 0x00, 0x00, 0x00, 0x09, 0x98, 0x00, 0x00, 0x00,
  0x02, 0x00, 0x00, 0x00, 0xff, 0xff, 0xff, 0xff, 0x40, 0x00, 0x00, 0x00,
  0x04, 0xf1, 0xff, 0xff, 0x08, 0x00, 0x00, 0x00, 0x14, 0x00, 0x00, 0x00,
  0x01, 0x00, 0x00, 0x00, 0x80, 0xff, 0xff, 0xff, 0xff, 0xff, 0xff, 0xff,
  0x00, 0x00, 0x00, 0x00, 0x01, 0x00, 0x00, 0x00, 0x06, 0x2d, 0xb3, 0x3b,
  0x5e, 0x00, 0x00, 0x00, 0x73, 0x65, 0x71, 0x75, 0x65, 0x6e, 0x74, 0x69,
  0x61, 0x6c, 0x5f, 0x33, 0x5f, 0x31, 0x2f, 0x64, 0x65, 0x6e, 0x73, 0x65,
  0x5f, 0x39, 0x5f, 0x31, 0x2f, 0x4d, 0x61, 0x74, 0x4d, 0x75, 0x6c, 0x3b,
  0x73, 0x65, 0x71, 0x75, 0x65, 0x6e, 0x74, 0x69, 0x61, 0x6c, 0x5f, 0x33,
  0x5f, 0x31, 0x2f, 0x64, 0x65, 0x6e, 0x73, 0x65, 0x5f, 0x39, 0x5f, 0x31,
  0x2f, 0x52, 0x65, 0x6c, 0x75, 0x3b, 0x73, 0x65, 0x71, 0x75, 0x65, 0x6e,
  0x74, 0x69, 0x61, 0x6c, 0x5f, 0x33, 0x5f, 0x31, 0x2f, 0x64, 0x65, 0x6e,
  0x73, 0x65, 0x5f, 0x39, 0x5f, 0x31, 0x2f, 0x42, 0x69, 0x61, 0x73, 0x41,
  0x64, 0x64, 0x00, 0x00, 0x02, 0x00, 0x00, 0x00, 0x01, 0x00, 0x00, 0x00,
  0x40, 0x00, 0x00, 0x00, 0x4e, 0xf2, 0xff, 0xff, 0x00, 0x00, 0x00, 0x01,
  0x14, 0x00, 0x00, 0x00, 0x28, 0x03, 0x00, 0x00, 0x07, 0x00, 0x00, 0x00,
  0x00, 0x00, 0x00, 0x09, 0x34, 0x03, 0x00, 0x00, 0xb4, 0xf1, 0xff, 0xff,
  0x08, 0x00, 0x00, 0x00, 0x0c, 0x02, 0x00, 0x00, 0x40, 0x00, 0x00, 0x00,
  0x00, 0x00, 0x00, 0x00, 0x00, 0x00, 0x00, 0x00, 0x00, 0x00, 0x00, 0x00,
  0x00, 0x00, 0x00, 0x00, 0x00, 0x00, 0x00, 0x00, 0x00, 0x00, 0x00, 0x00,
  0x00, 0x00, 0x00, 0x00, 0x00, 0x00, 0x00, 0x00, 0x00, 0x00, 0x00, 0x00,
  0x00, 0x00, 0x00, 0x00, 0x00, 0x00, 0x00, 0x00, 0x00, 0x00, 0x00, 0x00,
  0x00, 0x00, 0x00, 0x00, 0x00, 0x00, 0x00, 0x00, 0x00, 0x00, 0x00, 0x00,
  0x00, 0x00, 0x00, 0x00, 0x00, 0x00, 0x00, 0x00, 0x00, 0x00, 0x00, 0x00,
  0x00, 0x00, 0x00, 0x00, 0x00, 0x00, 0x00, 0x00, 0x00, 0x00, 0x00, 0x00,
  0x00, 0x00, 0x00, 0x00, 0x00, 0x00, 0x00, 0x00, 0x00, 0x00, 0x00, 0x00,
  0x00, 0x00, 0x00, 0x00, 0x00, 0x00, 0x00, 0x00, 0x00, 0x00, 0x00, 0x00,
  0x00, 0x00, 0x00, 0x00, 0x00, 0x00, 0x00, 0x00, 0x00, 0x00, 0x00, 0x00,
  0x00, 0x00, 0x00, 0x00, 0x00, 0x00, 0x00, 0x00, 0x00, 0x00, 0x00, 0x00,
  0x00, 0x00, 0x00, 0x00, 0x00, 0x00, 0x00, 0x00, 0x00, 0x00, 0x00, 0x00,
  0x00, 0x00, 0x00, 0x00, 0x00, 0x00, 0x00, 0x00, 0x00, 0x00, 0x00, 0x00,
  0x00, 0x00, 0x00, 0x00, 0x00, 0x00, 0x00, 0x00, 0x00, 0x00, 0x00, 0x00,
  0x00, 0x00, 0x00, 0x00, 0x00, 0x00, 0x00, 0x00, 0x00, 0x00, 0x00, 0x00,
  0x00, 0x00, 0x00, 0x00, 0x00, 0x00, 0x00, 0x00, 0x00, 0x00, 0x00, 0x00,
  0x00, 0x00, 0x00, 0x00, 0x00, 0x00, 0x00, 0x00, 0x00, 0x00, 0x00, 0x00,
  0x00, 0x00, 0x00, 0x00, 0x00, 0x00, 0x00, 0x00, 0x00, 0x00, 0x00, 0x00,
  0x00, 0x00, 0x00, 0x00, 0x00, 0x00, 0x00, 0x00, 0x00, 0x00, 0x00, 0x00,
  0x00, 0x00, 0x00, 0x00, 0x00, 0x00, 0x00, 0x00, 0x00, 0x00, 0x00, 0x00,
  0x00, 0x00, 0x00, 0x00, 0x00, 0x00, 0x00, 0x00, 0x00, 0x00, 0x00, 0x00,
  0x00, 0x00, 0x00, 0x00, 0x00, 0x00, 0x00, 0x00, 0x00, 0x00, 0x00, 0x00,
  0x00, 0x00, 0x00, 0x00, 0x00, 0x00, 0x00, 0x00, 0x00, 0x00, 0x00, 0x00,
  0x00, 0x00, 0x00, 0x00, 0x00, 0x00, 0x00, 0x00, 0x00, 0x00, 0x00, 0x00,
  0x00, 0x00, 0x00, 0x00, 0x00, 0x00, 0x00, 0x00, 0x00, 0x00, 0x00, 0x00,
  0x00, 0x00, 0x00, 0x00, 0x00, 0x00, 0x00, 0x00, 0x00, 0x00, 0x00, 0x00,
  0x00, 0x00, 0x00, 0x00, 0x00, 0x00, 0x00, 0x00, 0x00, 0x00, 0x00, 0x00,
  0x00, 0x00, 0x00, 0x00, 0x00, 0x00, 0x00, 0x00, 0x00, 0x00, 0x00, 0x00,
  0x00, 0x00, 0x00, 0x00, 0x00, 0x00, 0x00, 0x00, 0x00, 0x00, 0x00, 0x00,
  0x00, 0x00, 0x00, 0x00, 0x00, 0x00, 0x00, 0x00, 0x00, 0x00, 0x00, 0x00,
  0x00, 0x00, 0x00, 0x00, 0x00, 0x00, 0x00, 0x00, 0x00, 0x00, 0x00, 0x00,
  0x00, 0x00, 0x00, 0x00, 0x00, 0x00, 0x00, 0x00, 0x00, 0x00, 0x00, 0x00,
  0x00, 0x00, 0x00, 0x00, 0x00, 0x00, 0x00, 0x00, 0x00, 0x00, 0x00, 0x00,
  0x00, 0x00, 0x00, 0x00, 0x00, 0x00, 0x00, 0x00, 0x00, 0x00, 0x00, 0x00,
  0x00, 0x00, 0x00, 0x00, 0x00, 0x00, 0x00, 0x00, 0x00, 0x00, 0x00, 0x00,
  0x00, 0x00, 0x00, 0x00, 0x00, 0x00, 0x00, 0x00, 0x00, 0x00, 0x00, 0x00,
  0x00, 0x00, 0x00, 0x00, 0x00, 0x00, 0x00, 0x00, 0x00, 0x00, 0x00, 0x00,
  0x00, 0x00, 0x00, 0x00, 0x00, 0x00, 0x00, 0x00, 0x00, 0x00, 0x00, 0x00,
  0x00, 0x00, 0x00, 0x00, 0x00, 0x00, 0x00, 0x00, 0x00, 0x00, 0x00, 0x00,
  0x00, 0x00, 0x00, 0x00, 0x00, 0x00, 0x00, 0x00, 0x00, 0x00, 0x00, 0x00,
  0x00, 0x00, 0x00, 0x00, 0x00, 0x00, 0x00, 0x00, 0x00, 0x00, 0x00, 0x00,
  0x00, 0x00, 0x00, 0x00, 0x00, 0x00, 0x00, 0x00, 0x00, 0x00, 0x00, 0x00,
  0x00, 0x00, 0x00, 0x00, 0x00, 0x00, 0x00, 0x00, 0x00, 0x00, 0x00, 0x00,
  0x40, 0x00, 0x00, 0x00, 0xa5, 0x82, 0x4a, 0x3b, 0xd7, 0x65, 0x0c, 0x3b,
  0x78, 0xc1, 0x19, 0x3b, 0x22, 0x3e, 0x1c, 0x3b, 0xa9, 0x64, 0x0c, 0x3b,
  0xf1, 0xfe, 0x3e, 0x3b, 0x92, 0x2c, 0x06, 0x3b, 0xb9, 0x92, 0x25, 0x3b,
  0x08, 0x72, 0x00, 0x3b, 0xc2, 0xed, 0x1b, 0x3b, 0x48, 0xd9, 0x6e, 0x3b,
  0xc8, 0xf6, 0x3b, 0x3b, 0x88, 0xe0, 0x0d, 0x3b, 0x27, 0x37, 0xca, 0x3a,
  0x39, 0x36, 0x63, 0x3b, 0xb2, 0x8b, 0x15, 0x3b, 0x92, 0xeb, 0x04, 0x3b,
  0xb0, 0xba, 0x41, 0x3b, 0xe1, 0x4b, 0x38, 0x3b, 0x34, 0x46, 0xee, 0x3a,
  0x0e, 0xab, 0x2f, 0x3b, 0xa3, 0x32, 0x2a, 0x3b, 0xab, 0xc7, 0x85, 0x3b,
  0x8e, 0x21, 0xee, 0x3a, 0xda, 0x85, 0x02, 0x3b, 0xf9, 0x06, 0xcc, 0x3a,
  0x89, 0xa5, 0x0d, 0x3b, 0x2e, 0xed, 0x16, 0x3b, 0xdc, 0x91, 0x91, 0x3b,
  0x7b, 0x43, 0x3a, 0x3b, 0x8c, 0x54, 0x72, 0x3b, 0x83, 0x58, 0xf7, 0x3a,
  0xff, 0xbc, 0x15, 0x3b, 0xf7, 0xbe, 0x4c, 0x3b, 0x96, 0x96, 0x24, 0x3b,
  0xef, 0x32, 0x0c, 0x3b, 0x72, 0x7b, 0x49, 0x3b, 0x65, 0x29, 0x6f, 0x3b,
  0xb9, 0xb5, 0x07, 0x3b, 0x74, 0xbc, 0x86, 0x3b, 0xcc, 0xed, 0x16, 0x3b,
  0x4d, 0x38, 0x1f, 0x3b, 0x92, 0x07, 0x27, 0x3b, 0x1f, 0x42, 0xfd, 0x3a,
  0x7d, 0x4c, 0x1e, 0x3b, 0xf0, 0x40, 0x2d, 0x3b, 0xcf, 0x9a, 0x1c, 0x3b,
  0x65, 0xf8, 0x48, 0x3b, 0xa7, 0x47, 0x21, 0x3b, 0xf8, 0x8a, 0x2c, 0x3b,
  0xde, 0x74, 0x52, 0x3b, 0xeb, 0xf5, 0x66, 0x3b, 0x81, 0xf0, 0x1d, 0x3b,
  0x3d, 0x30, 0x35, 0x3b, 0x01, 0x4d, 0xdd, 0x3a, 0xff, 0xe0, 0x11, 0x3b,
  0xe1, 0x57, 0x2d, 0x3b, 0x78, 0xca, 0x03, 0x3b, 0xdd, 0x43, 0x18, 0x3b,
  0x26, 0x60, 0x39, 0x3b, 0x63, 0x05, 0x40, 0x3b, 0xb4, 0xee, 0x37, 0x3b,
  0xe7, 0x36, 0x2c, 0x3b, 0x2c, 0x70, 0x3a, 0x3b, 0x12, 0x00, 0x00, 0x00,
  0x74, 0x66, 0x6c, 0x2e, 0x70, 0x73, 0x65, 0x75, 0x64, 0x6f, 0x5f, 0x71,
  0x63, 0x6f, 0x6e, 0x73, 0x74, 0x35, 0x00, 0x00, 0x02, 0x00, 0x00, 0x00,
  0x40, 0x00, 0x00, 0x00, 0x07, 0x00, 0x00, 0x00, 0xa6, 0xf5, 0xff, 0xff,
  0x00, 0x00, 0x00, 0x01, 0x14, 0x00, 0x00, 0x00, 0x24, 0x03, 0x00, 0x00,
  0x06, 0x00, 0x00, 0x00, 0x00, 0x00, 0x00, 0x02, 0x30, 0x03, 0x00, 0x00,
  0x0c, 0xf5, 0xff, 0xff, 0x08, 0x00, 0x00, 0x00, 0x08, 0x02, 0x00, 0x00,
  0x40, 0x00, 0x00, 0x00, 0x00, 0x00, 0x00, 0x00, 0x00, 0x00, 0x00, 0x00,
  0x00, 0x00, 0x00, 0x00, 0x00, 0x00, 0x00, 0x00, 0x00, 0x00, 0x00, 0x00,
  0x00, 0x00, 0x00, 0x00, 0x00, 0x00, 0x00, 0x00, 0x00, 0x00, 0x00, 0x00,
  0x00, 0x00, 0x00, 0x00, 0x00, 0x00, 0x00, 0x00, 0x00, 0x00, 0x00, 0x00,
  0x00, 0x00, 0x00, 0x00, 0x00, 0x00, 0x00, 0x00, 0x00, 0x00, 0x00, 0x00,
  0x00, 0x00, 0x00, 0x00, 0x00, 0x00, 0x00, 0x00, 0x00, 0x00, 0x00, 0x00,
  0x00, 0x00, 0x00, 0x00, 0x00, 0x00, 0x00, 0x00, 0x00, 0x00, 0x00, 0x00,
  0x00, 0x00, 0x00, 0x00, 0x00, 0x00, 0x00, 0x00, 0x00, 0x00, 0x00, 0x00,
  0x00, 0x00, 0x00, 0x00, 0x00, 0x00, 0x00, 0x00, 0x00, 0x00, 0x00, 0x00,
  0x00, 0x00, 0x00, 0x00, 0x00, 0x00, 0x00, 0x00, 0x00, 0x00, 0x00, 0x00,
  0x00, 0x00, 0x00, 0x00, 0x00, 0x00, 0x00, 0x00, 0x00, 0x00, 0x00, 0x00,
  0x00, 0x00, 0x00, 0x00, 0x00, 0x00, 0x00, 0x00, 0x00, 0x00, 0x00, 0x00,
  0x00, 0x00, 0x00, 0x00, 0x00, 0x00, 0x00, 0x00, 0x00, 0x00, 0x00, 0x00,
  0x00, 0x00, 0x00, 0x00, 0x00, 0x00, 0x00, 0x00, 0x00, 0x00, 0x00, 0x00,
  0x00, 0x00, 0x00, 0x00, 0x00, 0x00, 0x00, 0x00, 0x00, 0x00, 0x00, 0x00,
  0x00, 0x00, 0x00, 0x00, 0x00, 0x00, 0x00, 0x00, 0x00, 0x00, 0x00, 0x00,
  0x00, 0x00, 0x00, 0x00, 0x00, 0x00, 0x00, 0x00, 0x00, 0x00, 0x00, 0x00,
  0x00, 0x00, 0x00, 0x00, 0x00, 0x00, 0x00, 0x00, 0x00, 0x00, 0x00, 0x00,
  0x00, 0x00, 0x00, 0x00, 0x00, 0x00, 0x00, 0x00, 0x00, 0x00, 0x00, 0x00,
  0x00, 0x00, 0x00, 0x00, 0x00, 0x00, 0x00, 0x00, 0x00, 0x00, 0x00, 0x00,
  0x00, 0x00, 0x00, 0x00, 0x00, 0x00, 0x00, 0x00, 0x00, 0x00, 0x00, 0x00,
  0x00, 0x00, 0x00, 0x00, 0x00, 0x00, 0x00, 0x00, 0x00, 0x00, 0x00, 0x00,
  0x00, 0x00, 0x00, 0x00, 0x00, 0x00, 0x00, 0x00, 0x00, 0x00, 0x00, 0x00,
  0x00, 0x00, 0x00, 0x00, 0x00, 0x00, 0x00, 0x00, 0x00, 0x00, 0x00, 0x00,
  0x00, 0x00, 0x00, 0x00, 0x00, 0x00, 0x00, 0x00, 0x00, 0x00, 0x00, 0x00,
  0x00, 0x00, 0x00, 0x00, 0x00, 0x00, 0x00, 0x00, 0x00, 0x00, 0x00, 0x00,
  0x00, 0x00, 0x00, 0x00, 0x00, 0x00, 0x00, 0x00, 0x00, 0x00, 0x00, 0x00,
  0x00, 0x00, 0x00, 0x00, 0x00, 0x00, 0x00, 0x00, 0x00, 0x00, 0x00, 0x00,
  0x00, 0x00, 0x00, 0x00, 0x00, 0x00, 0x00, 0x00, 0x00, 0x00, 0x00, 0x00,
  0x00, 0x00, 0x00, 0x00, 0x00, 0x00, 0x00, 0x00, 0x00, 0x00, 0x00, 0x00,
  0x00, 0x00, 0x00, 0x00, 0x00, 0x00, 0x00, 0x00, 0x00, 0x00, 0x00, 0x00,
  0x00, 0x00, 0x00, 0x00, 0x00, 0x00, 0x00, 0x00, 0x00, 0x00, 0x00, 0x00,
  0x00, 0x00, 0x00, 0x00, 0x00, 0x00, 0x00, 0x00, 0x00, 0x00, 0x00, 0x00,
  0x00, 0x00, 0x00, 0x00, 0x00, 0x00, 0x00, 0x00, 0x00, 0x00, 0x00, 0x00,
  0x00, 0x00, 0x00, 0x00, 0x00, 0x00, 0x00, 0x00, 0x00, 0x00, 0x00, 0x00,
  0x00, 0x00, 0x00, 0x00, 0x00, 0x00, 0x00, 0x00, 0x00, 0x00, 0x00, 0x00,
  0x00, 0x00, 0x00, 0x00, 0x00, 0x00, 0x00, 0x00, 0x00, 0x00, 0x00, 0x00,
  0x00, 0x00, 0x00, 0x00, 0x00, 0x00, 0x00, 0x00, 0x00, 0x00, 0x00, 0x00,
  0x00, 0x00, 0x00, 0x00, 0x00, 0x00, 0x00, 0x00, 0x00, 0x00, 0x00, 0x00,
  0x00, 0x00, 0x00, 0x00, 0x00, 0x00, 0x00, 0x00, 0x00, 0x00, 0x00, 0x00,
  0x00, 0x00, 0x00, 0x00, 0x00, 0x00, 0x00, 0x00, 0x00, 0x00, 0x00, 0x00,
  0x00, 0x00, 0x00, 0x00, 0x00, 0x00, 0x00, 0x00, 0x00, 0x00, 0x00, 0x00,
  0x00, 0x00, 0x00, 0x00, 0x00, 0x00, 0x00, 0x00, 0x00, 0x00, 0x00, 0x00,
  0x40, 0x00, 0x00, 0x00, 0xdf, 0x4d, 0xcb, 0x37, 0xbc, 0xf2, 0x8c, 0x37,
  0xc5, 0x5b, 0x9a, 0x37, 0xee, 0xda, 0x9c, 0x37, 0x8d, 0xf1, 0x8c, 0x37,
  0x9d, 0xbe, 0xbf, 0x37, 0x38, 0xb3, 0x86, 0x37, 0xe2, 0x38, 0xa6, 0x37,
  0xee, 0xf2, 0x80, 0x37, 0x3d, 0x8a, 0x9c, 0x37, 0xfa, 0xc8, 0xef, 0x37,
  0x69, 0xb3, 0xbc, 0x37, 0xe9, 0x6e, 0x8e, 0x37, 0x15, 0x02, 0x4b, 0x37,
  0x3d, 0x1a, 0xe4, 0x37, 0xc5, 0x21, 0x96, 0x37, 0xf6, 0x70, 0x85, 0x37,
  0x1a, 0x7d, 0xc2, 0x37, 0xd4, 0x04, 0xb9, 0x37, 0x52, 0x35, 0x6f, 0x37,
  0x58, 0x5b, 0xb0, 0x37, 0x70, 0xdd, 0xaa, 0x37, 0xec, 0x4d, 0x06, 0x38,
  0x87, 0x10, 0x6f, 0x37, 0xd6, 0x08, 0x83, 0x37, 0xb9, 0xd3, 0x4c, 0x37,
  0xaf, 0x33, 0x8e, 0x37, 0xa4, 0x84, 0x97, 0x37, 0xf2, 0x23, 0x12, 0x38,
  0x67, 0xfe, 0xba, 0x37, 0xbc, 0x47, 0xf3, 0x37, 0xbc, 0x50, 0x78, 0x37,
  0x44, 0x53, 0x96, 0x37, 0x70, 0x8c, 0xcd, 0x37, 0xc2, 0x3b, 0xa5, 0x37,
  0xa1, 0xbf, 0x8c, 0x37, 0xa4, 0x45, 0xca, 0x37, 0x67, 0x19, 0xf0, 0x37,
  0xea, 0x3d, 0x88, 0x37, 0xab, 0x43, 0x07, 0x38, 0x43, 0x85, 0x97, 0x37,
  0x16, 0xd8, 0x9f, 0x37, 0x31, 0xaf, 0xa7, 0x37, 0x47, 0x40, 0x7e, 0x37,
  0x59, 0xeb, 0x9e, 0x37, 0xce, 0xee, 0xad, 0x37, 0xf8, 0x37, 0x9d, 0x37,
  0x14, 0xc2, 0xc9, 0x37, 0x81, 0xe9, 0xa1, 0x37, 0x1f, 0x38, 0xad, 0x37,
  0x12, 0x48, 0xd3, 0x37, 0xb2, 0xdd, 0xe7, 0x37, 0x01, 0x8f, 0x9e, 0x37,
  0x11, 0xe6, 0xb5, 0x37, 0x17, 0x2b, 0x5e, 0x37, 0x64, 0x73, 0x92, 0x37,
  0xd6, 0x05, 0xae, 0x37, 0xba, 0x4e, 0x84, 0x37, 0xab, 0xdc, 0x98, 0x37,
  0x2e, 0x1a, 0xba, 0x37, 0x16, 0xc6, 0xc0, 0x37, 0x49, 0xa7, 0xb8, 0x37,
  0xba, 0xe3, 0xac, 0x37, 0x45, 0x2b, 0xbb, 0x37, 0x12, 0x00, 0x00, 0x00,
  0x74, 0x66, 0x6c, 0x2e, 0x70, 0x73, 0x65, 0x75, 0x64, 0x6f, 0x5f, 0x71,
  0x63, 0x6f, 0x6e, 0x73, 0x74, 0x34, 0x00, 0x00, 0x01, 0x00, 0x00, 0x00,
  0x40, 0x00, 0x00, 0x00, 0xf6, 0xf8, 0xff, 0xff, 0x00, 0x00, 0x00, 0x01,
  0x14, 0x00, 0x00, 0x00, 0x28, 0x03, 0x00, 0x00, 0x05, 0x00, 0x00, 0x00,
  0x00, 0x00, 0x00, 0x09, 0x34, 0x03, 0x00, 0x00, 0x5c, 0xf8, 0xff, 0xff,
  0x08, 0x00, 0x00, 0x00, 0x0c, 0x02, 0x00, 0x00, 0x40, 0x00, 0x00, 0x00,
  0x00, 0x00, 0x00, 0x00, 0x00, 0x00, 0x00, 0x00, 0x00, 0x00, 0x00, 0x00,
  0x00, 0x00, 0x00, 0x00, 0x00, 0x00, 0x00, 0x00, 0x00, 0x00, 0x00, 0x00,
  0x00, 0x00, 0x00, 0x00, 0x00, 0x00, 0x00, 0x00, 0x00, 0x00, 0x00, 0x00,
  0x00, 0x00, 0x00, 0x00, 0x00, 0x00, 0x00, 0x00, 0x00, 0x00, 0x00, 0x00,
  0x00, 0x00, 0x00, 0x00, 0x00, 0x00, 0x00, 0x00, 0x00, 0x00, 0x00, 0x00,
  0x00, 0x00, 0x00, 0x00, 0x00, 0x00, 0x00, 0x00, 0x00, 0x00, 0x00, 0x00,
  0x00, 0x00, 0x00, 0x00, 0x00, 0x00, 0x00, 0x00, 0x00, 0x00, 0x00, 0x00,
  0x00, 0x00, 0x00, 0x00, 0x00, 0x00, 0x00, 0x00, 0x00, 0x00, 0x00, 0x00,
  0x00, 0x00, 0x00, 0x00, 0x00, 0x00, 0x00, 0x00, 0x00, 0x00, 0x00, 0x00,
  0x00, 0x00, 0x00, 0x00, 0x00, 0x00, 0x00, 0x00, 0x00, 0x00, 0x00, 0x00,
  0x00, 0x00, 0x00, 0x00, 0x00, 0x00, 0x00, 0x00, 0x00, 0x00, 0x00, 0x00,
  0x00, 0x00, 0x00, 0x00, 0x00, 0x00, 0x00, 0x00, 0x00, 0x00, 0x00, 0x00,
  0x00, 0x00, 0x00, 0x00, 0x00, 0x00, 0x00, 0x00, 0x00, 0x00, 0x00, 0x00,
  0x00, 0x00, 0x00, 0x00, 0x00, 0x00, 0x00, 0x00, 0x00, 0x00, 0x00, 0x00,
  0x00, 0x00, 0x00, 0x00, 0x00, 0x00, 0x00, 0x00, 0x00, 0x00, 0x00, 0x00,
  0x00, 0x00, 0x00, 0x00, 0x00, 0x00, 0x00, 0x00, 0x00, 0x00, 0x00, 0x00,
  0x00, 0x00, 0x00, 0x00, 0x00, 0x00, 0x00, 0x00, 0x00, 0x00, 0x00, 0x00,
  0x00, 0x00, 0x00, 0x00, 0x00, 0x00, 0x00, 0x00, 0x00, 0x00, 0x00, 0x00,
  0x00, 0x00, 0x00, 0x00, 0x00, 0x00, 0x00, 0x00, 0x00, 0x00, 0x00, 0x00,
  0x00, 0x00, 0x00, 0x00, 0x00, 0x00, 0x00, 0x00, 0x00, 0x00, 0x00, 0x00,
  0x00, 0x00, 0x00, 0x00, 0x00, 0x00, 0x00, 0x00, 0x00, 0x00, 0x00, 0x00,
  0x00, 0x00, 0x00, 0x00, 0x00, 0x00, 0x00, 0x00, 0x00, 0x00, 0x00, 0x00,
  0x00, 0x00, 0x00, 0x00, 0x00, 0x00, 0x00, 0x00, 0x00, 0x00, 0x00, 0x00,
  0x00, 0x00, 0x00, 0x00, 0x00, 0x00, 0x00, 0x00, 0x00, 0x00, 0x00, 0x00,
  0x00, 0x00, 0x00, 0x00, 0x00, 0x00, 0x00, 0x00, 0x00, 0x00, 0x00, 0x00,
  0x00, 0x00, 0x00, 0x00, 0x00, 0x00, 0x00, 0x00, 0x00, 0x00, 0x00, 0x00,
  0x00, 0x00, 0x00, 0x00, 0x00, 0x00, 0x00, 0x00, 0x00, 0x00, 0x00, 0x00,
  0x00, 0x00, 0x00, 0x00, 0x00, 0x00, 0x00, 0x00, 0x00, 0x00, 0x00, 0x00,
  0x00, 0x00, 0x00, 0x00, 0x00, 0x00, 0x00, 0x00, 0x00, 0x00, 0x00, 0x00,
  0x00, 0x00, 0x00, 0x00, 0x00, 0x00, 0x00, 0x00, 0x00, 0x00, 0x00, 0x00,
  0x00, 0x00, 0x00, 0x00, 0x00, 0x00, 0x00, 0x00, 0x00, 0x00, 0x00, 0x00,
  0x00, 0x00, 0x00, 0x00, 0x00, 0x00, 0x00, 0x00, 0x00, 0x00, 0x00, 0x00,
  0x00, 0x00, 0x00, 0x00, 0x00, 0x00, 0x00, 0x00, 0x00, 0x00, 0x00, 0x00,
  0x00, 0x00, 0x00, 0x00, 0x00, 0x00, 0x00, 0x00, 0x00, 0x00, 0x00, 0x00,
  0x00, 0x00, 0x00, 0x00, 0x00, 0x00, 0x00, 0x00, 0x00, 0x00, 0x00, 0x00,
  0x00, 0x00, 0x00, 0x00, 0x00, 0x00, 0x00, 0x00, 0x00, 0x00, 0x00, 0x00,
  0x00, 0x00, 0x00, 0x00, 0x00, 0x00, 0x00, 0x00, 0x00, 0x00, 0x00, 0x00,
  0x00, 0x00, 0x00, 0x00, 0x00, 0x00, 0x00, 0x00, 0x00, 0x00, 0x00, 0x00,
  0x00, 0x00, 0x00, 0x00, 0x00, 0x00, 0x00, 0x00, 0x00, 0x00, 0x00, 0x00,
  0x00, 0x00, 0x00, 0x00, 0x00, 0x00, 0x00, 0x00, 0x00, 0x00, 0x00, 0x00,
  0x00, 0x00, 0x00, 0x00, 0x00, 0x00, 0x00, 0x00, 0x00, 0x00, 0x00, 0x00,
  0x00, 0x00, 0x00, 0x00, 0x00, 0x00, 0x00, 0x00, 0x00, 0x00, 0x00, 0x00,
  0x00, 0x00, 0x00, 0x00, 0x00, 0x00, 0x00, 0x00, 0x00, 0x00, 0x00, 0x00,
  0x40, 0x00, 0x00, 0x00, 0x86, 0x80, 0xbb, 0x3c, 0x56, 0xbc, 0x0e, 0x3d,
  0xad, 0x25, 0xb2, 0x3c, 0x8f, 0x1d, 0xc5, 0x3c, 0x30, 0x85, 0xe7, 0x3c,
  0xc6, 0x3d, 0xb9, 0x3c, 0x4c, 0x12, 0xbe, 0x3c, 0xb8, 0x51, 0xbe, 0x3c,
  0xcb, 0xb7, 0xce, 0x3c, 0xcd, 0xed, 0xb5, 0x3c, 0xe8, 0x5a, 0xc0, 0x3c,
  0x58, 0x29, 0x93, 0x3c, 0xab, 0x06, 0xbe, 0x3c, 0x46, 0xb8, 0x43, 0x3d,
  0xaf, 0x82, 0xd5, 0x3c, 0x33, 0x09, 0xdf, 0x3c, 0x48, 0x2d, 0x0b, 0x3d,
  0xbe, 0x1c, 0x0e, 0x3d, 0xc9, 0x6a, 0x35, 0x3d, 0x4f, 0x15, 0x45, 0x3d,
  0x22, 0xef, 0xd1, 0x3c, 0x96, 0x97, 0x71, 0x3d, 0xbe, 0x60, 0x1f, 0x3d,
  0xf6, 0xf6, 0x24, 0x3d, 0xce, 0xab, 0xc2, 0x3c, 0x32, 0x42, 0x8f, 0x3d,
  0x37, 0x0d, 0xd2, 0x3c, 0x19, 0x5c, 0xc0, 0x3c, 0xb0, 0x71, 0x1d, 0x3d,
  0xc4, 0xae, 0xcc, 0x3c, 0x29, 0xa7, 0x1b, 0x3d, 0xab, 0x15, 0x01, 0x3d,
  0x7c, 0x89, 0xe5, 0x3c, 0xea, 0x93, 0x5f, 0x3d, 0x88, 0x02, 0xc3, 0x3c,
  0x1f, 0x2b, 0x11, 0x3d, 0x07, 0xed, 0xe0, 0x3c, 0x3b, 0xd7, 0xae, 0x3c,
  0x62, 0xc2, 0xe4, 0x3c, 0xcc, 0xea, 0x1a, 0x3d, 0x42, 0x6d, 0xb9, 0x3c,
  0xbe, 0xf9, 0x23, 0x3d, 0x55, 0xb0, 0xf5, 0x3c, 0xc5, 0xdc, 0xdb, 0x3c,
  0x1c, 0x68, 0xca, 0x3c, 0xc6, 0x3c, 0x5a, 0x3d, 0xd1, 0xfe, 0xa1, 0x3c,
  0xc6, 0x44, 0x24, 0x3d, 0x7a, 0x36, 0x6a, 0x3d, 0xad, 0x06, 0x01, 0x3d,
  0xad, 0x15, 0xe5, 0x3c, 0xda, 0x3a, 0x37, 0x3d, 0x3e, 0xf2, 0x0d, 0x3d,
  0x0d, 0xa1, 0xe8, 0x3c, 0x53, 0xa8, 0x2f, 0x3d, 0x01, 0xb9, 0x48, 0x3d,
  0x79, 0xb8, 0x0d, 0x3d, 0x80, 0x75, 0xf9, 0x3c, 0xbd, 0x96, 0xb2, 0x3c,
  0x3e, 0xf5, 0xf6, 0x3c, 0x10, 0x66, 0x33, 0x3d, 0xea, 0x6a, 0xea, 0x3c,
  0x5c, 0xb9, 0x12, 0x3d, 0x79, 0x42, 0xd7, 0x3c, 0x12, 0x00, 0x00, 0x00,
  0x74, 0x66, 0x6c, 0x2e, 0x70, 0x73, 0x65, 0x75, 0x64, 0x6f, 0x5f, 0x71,
  0x63, 0x6f, 0x6e, 0x73, 0x74, 0x33, 0x00, 0x00, 0x02, 0x00, 0x00, 0x00,
  0x40, 0x00, 0x00, 0x00, 0x40, 0x00, 0x00, 0x00, 0x4e, 0xfc, 0xff, 0xff,
  0x00, 0x00, 0x00, 0x01, 0x14, 0x00, 0x00, 0x00, 0x24, 0x03, 0x00, 0x00,
  0x04, 0x00, 0x00, 0x00, 0x00, 0x00, 0x00, 0x02, 0x30, 0x03, 0x00, 0x00,
  0xb4, 0xfb, 0xff, 0xff, 0x08, 0x00, 0x00, 0x00, 0x08, 0x02, 0x00, 0x00,
  0x40, 0x00, 0x00, 0x00, 0x00, 0x00, 0x00, 0x00, 0x00, 0x00, 0x00, 0x00,
  0x00, 0x00, 0x00, 0x00, 0x00, 0x00, 0x00, 0x00, 0x00, 0x00, 0x00, 0x00,
  0x00, 0x00, 0x00, 0x00, 0x00, 0x00, 0x00, 0x00, 0x00, 0x00, 0x00, 0x00,
  0x00, 0x00, 0x00, 0x00, 0x00, 0x00, 0x00, 0x00, 0x00, 0x00, 0x00, 0x00,
  0x00, 0x00, 0x00, 0x00, 0x00, 0x00, 0x00, 0x00, 0x00, 0x00, 0x00, 0x00,
  0x00, 0x00, 0x00, 0x00, 0x00, 0x00, 0x00, 0x00, 0x00, 0x00, 0x00, 0x00,
  0x00, 0x00, 0x00, 0x00, 0x00, 0x00, 0x00, 0x00, 0x00, 0x00, 0x00, 0x00,
  0x00, 0x00, 0x00, 0x00, 0x00, 0x00, 0x00, 0x00, 0x00, 0x00, 0x00, 0x00,
  0x00, 0x00, 0x00, 0x00, 0x00, 0x00, 0x00, 0x00, 0x00, 0x00, 0x00, 0x00,
  0x00, 0x00, 0x00, 0x00, 0x00, 0x00, 0x00, 0x00, 0x00, 0x00, 0x00, 0x00,
  0x00, 0x00, 0x00, 0x00, 0x00, 0x00, 0x00, 0x00, 0x00, 0x00, 0x00, 0x00,
  0x00, 0x00, 0x00, 0x00, 0x00, 0x00, 0x00, 0x00, 0x00, 0x00, 0x00, 0x00,
  0x00, 0x00, 0x00, 0x00, 0x00, 0x00, 0x00, 0x00, 0x00, 0x00, 0x00, 0x00,
  0x00, 0x00, 0x00, 0x00, 0x00, 0x00, 0x00, 0x00, 0x00, 0x00, 0x00, 0x00,
  0x00, 0x00, 0x00, 0x00, 0x00, 0x00, 0x00, 0x00, 0x00, 0x00, 0x00, 0x00,
  0x00, 0x00, 0x00, 0x00, 0x00, 0x00, 0x00, 0x00, 0x00, 0x00, 0x00, 0x00,
  0x00, 0x00, 0x00, 0x00, 0x00, 0x00, 0x00, 0x00, 0x00, 0x00, 0x00, 0x00,
  0x00, 0x00, 0x00, 0x00, 0x00, 0x00, 0x00, 0x00, 0x00, 0x00, 0x00, 0x00,
  0x00, 0x00, 0x00, 0x00, 0x00, 0x00, 0x00, 0x00, 0x00, 0x00, 0x00, 0x00,
  0x00, 0x00, 0x00, 0x00, 0x00, 0x00, 0x00, 0x00, 0x00, 0x00, 0x00, 0x00,
  0x00, 0x00, 0x00, 0x00, 0x00, 0x00, 0x00, 0x00, 0x00, 0x00, 0x00, 0x00,
  0x00, 0x00, 0x00, 0x00, 0x00, 0x00, 0x00, 0x00, 0x00, 0x00, 0x00, 0x00,
  0x00, 0x00, 0x00, 0x00, 0x00, 0x00, 0x00, 0x00, 0x00, 0x00, 0x00, 0x00,
  0x00, 0x00, 0x00, 0x00, 0x00, 0x00, 0x00, 0x00, 0x00, 0x00, 0x00, 0x00,
  0x00, 0x00, 0x00, 0x00, 0x00, 0x00, 0x00, 0x00, 0x00, 0x00, 0x00, 0x00,
  0x00, 0x00, 0x00, 0x00, 0x00, 0x00, 0x00, 0x00, 0x00, 0x00, 0x00, 0x00,
  0x00, 0x00, 0x00, 0x00, 0x00, 0x00, 0x00, 0x00, 0x00, 0x00, 0x00, 0x00,
  0x00, 0x00, 0x00, 0x00, 0x00, 0x00, 0x00, 0x00, 0x00, 0x00, 0x00, 0x00,
  0x00, 0x00, 0x00, 0x00, 0x00, 0x00, 0x00, 0x00, 0x00, 0x00, 0x00, 0x00,
  0x00, 0x00, 0x00, 0x00, 0x00, 0x00, 0x00, 0x00, 0x00, 0x00, 0x00, 0x00,
  0x00, 0x00, 0x00, 0x00, 0x00, 0x00, 0x00, 0x00, 0x00, 0x00, 0x00, 0x00,
  0x00, 0x00, 0x00, 0x00, 0x00, 0x00, 0x00, 0x00, 0x00, 0x00, 0x00, 0x00,
  0x00, 0x00, 0x00, 0x00, 0x00, 0x00, 0x00, 0x00, 0x00, 0x00, 0x00, 0x00,
  0x00, 0x00, 0x00, 0x00, 0x00, 0x00, 0x00, 0x00, 0x00, 0x00, 0x00, 0x00,
  0x00, 0x00, 0x00, 0x00, 0x00, 0x00, 0x00, 0x00, 0x00, 0x00, 0x00, 0x00,
  0x00, 0x00, 0x00, 0x00, 0x00, 0x00, 0x00, 0x00, 0x00, 0x00, 0x00, 0x00,
  0x00, 0x00, 0x00, 0x00, 0x00, 0x00, 0x00, 0x00, 0x00, 0x00, 0x00, 0x00,
  0x00, 0x00, 0x00, 0x00, 0x00, 0x00, 0x00, 0x00, 0x00, 0x00, 0x00, 0x00,
  0x00, 0x00, 0x00, 0x00, 0x00, 0x00, 0x00, 0x00, 0x00, 0x00, 0x00, 0x00,
  0x00, 0x00, 0x00, 0x00, 0x00, 0x00, 0x00, 0x00, 0x00, 0x00, 0x00, 0x00,
  0x00, 0x00, 0x00, 0x00, 0x00, 0x00, 0x00, 0x00, 0x00, 0x00, 0x00, 0x00,
  0x00, 0x00, 0x00, 0x00, 0x00, 0x00, 0x00, 0x00, 0x00, 0x00, 0x00, 0x00,
  0x00, 0x00, 0x00, 0x00, 0x00, 0x00, 0x00, 0x00, 0x00, 0x00, 0x00, 0x00,
  0x40, 0x00, 0x00, 0x00, 0xd8, 0x3b, 0x03, 0x39, 0x95, 0xcd, 0x47, 0x39,
  0x5a, 0x5f, 0xf9, 0x38, 0x56, 0xf6, 0x09, 0x39, 0xd8, 0x0a, 0x22, 0x39,
  0xc6, 0xa6, 0x01, 0x39, 0x39, 0x08, 0x05, 0x39, 0x9c, 0x34, 0x05, 0x39,
  0xde, 0xae, 0x10, 0x39, 0x8b, 0xaa, 0xfe, 0x38, 0x65, 0xa1, 0x06, 0x39,
  0x94, 0xff, 0xcd, 0x38, 0x15, 0x00, 0x05, 0x39, 0x45, 0xfc, 0x88, 0x39,
  0xed, 0x6f, 0x15, 0x39, 0xa9, 0x1a, 0x1c, 0x39, 0x47, 0xd2, 0x42, 0x39,
  0x2e, 0xee, 0x46, 0x39, 0x25, 0xf3, 0x7d, 0x39, 0x90, 0xf0, 0x89, 0x39,
  0x21, 0xef, 0x12, 0x39, 0x7b, 0x17, 0xa9, 0x39, 0x59, 0x19, 0x5f, 0x39,
  0x63, 0xeb, 0x66, 0x39, 0x5e, 0x40, 0x08, 0x39, 0xf6, 0x88, 0xc8, 0x39,
  0x2f, 0x04, 0x13, 0x39, 0x3a, 0xa2, 0x06, 0x39, 0x5d, 0x64, 0x5c, 0x39,
  0x33, 0x42, 0x0f, 0x39, 0x83, 0xe2, 0x59, 0x39, 0xb5, 0xb1, 0x34, 0x39,
  0x80, 0xa7, 0x20, 0x39, 0xbf, 0x7b, 0x9c, 0x39, 0x11, 0x7d, 0x08, 0x39,
  0x5d, 0x35, 0x4b, 0x39, 0x4b, 0x6d, 0x1d, 0x39, 0x7c, 0xbe, 0xf4, 0x38,
  0x26, 0x1c, 0x20, 0x39, 0xd7, 0xda, 0x58, 0x39, 0x02, 0xc8, 0x01, 0x39,
  0xed, 0x88, 0x65, 0x39, 0x81, 0xf5, 0x2b, 0x39, 0x09, 0xe2, 0x19, 0x39,
  0x65, 0xaa, 0x0d, 0x39, 0xe0, 0xbe, 0x98, 0x39, 0x53, 0xc3, 0xe2, 0x38,
  0xf5, 0xf1, 0x65, 0x39, 0x48, 0xed, 0xa3, 0x39, 0xb8, 0x9c, 0x34, 0x39,
  0x72, 0x56, 0x20, 0x39, 0x60, 0x3e, 0x80, 0x39, 0xb1, 0xb2, 0x46, 0x39,
  0x86, 0xd1, 0x22, 0x39, 0x2d, 0xe3, 0x75, 0x39, 0xa9, 0x7c, 0x8c, 0x39,
  0xd3, 0x61, 0x46, 0x39, 0x08, 0x99, 0x2e, 0x39, 0x9e, 0xfd, 0xf9, 0x38,
  0xe9, 0xd8, 0x2c, 0x39, 0xd5, 0x1f, 0x7b, 0x39, 0xfc, 0x11, 0x24, 0x39,
  0xd3, 0x62, 0x4d, 0x39, 0x56, 0xa9, 0x16, 0x39, 0x12, 0x00, 0x00, 0x00,
  0x74, 0x66, 0x6c, 0x2e, 0x70, 0x73, 0x65, 0x75, 0x64, 0x6f, 0x5f, 0x71,
  0x63, 0x6f, 0x6e, 0x73, 0x74, 0x32, 0x00, 0x00, 0x01, 0x00, 0x00, 0x00,
  0x40, 0x00, 0x00, 0x00, 0x9e, 0xff, 0xff, 0xff, 0x00, 0x00, 0x00, 0x01,
  0x14, 0x00, 0x00, 0x00, 0x30, 0x00, 0x00, 0x00, 0x03, 0x00, 0x00, 0x00,
  0x00, 0x00, 0x00, 0x09, 0x3c, 0x00, 0x00, 0x00, 0x04, 0xff, 0xff, 0xff,
  0x08, 0x00, 0x00, 0x00, 0x10, 0x00, 0x00, 0x00, 0x01, 0x00, 0x00, 0x00,
  0x00, 0x00, 0x00, 0x00, 0x00, 0x00, 0x00, 0x00, 0x01, 0x00, 0x00, 0x00,
  0xb5, 0xdc, 0xe6, 0x39, 0x12, 0x00, 0x00, 0x00, 0x74, 0x66, 0x6c, 0x2e,
  0x70, 0x73, 0x65, 0x75, 0x64, 0x6f, 0x5f, 0x71, 0x63, 0x6f, 0x6e, 0x73,
  0x74, 0x31, 0x00, 0x00, 0x02, 0x00, 0x00, 0x00, 0x01, 0x00, 0x00, 0x00,
  0x40, 0x00, 0x00, 0x00, 0x00, 0x00, 0x16, 0x00, 0x1c, 0x00, 0x18, 0x00,
  0x17, 0x00, 0x10, 0x00, 0x0c, 0x00, 0x08, 0x00, 0x00, 0x00, 0x00, 0x00,
  0x00, 0x00, 0x07, 0x00, 0x16, 0x00, 0x00, 0x00, 0x00, 0x00, 0x00, 0x01,
  0x14, 0x00, 0x00, 0x00, 0x30, 0x00, 0x00, 0x00, 0x02, 0x00, 0x00, 0x00,
  0x00, 0x00, 0x00, 0x02, 0x3c, 0x00, 0x00, 0x00, 0x7c, 0xff, 0xff, 0xff,
  0x08, 0x00, 0x00, 0x00, 0x10, 0x00, 0x00, 0x00, 0x01, 0x00, 0x00, 0x00,
  0x00, 0x00, 0x00, 0x00, 0x00, 0x00, 0x00, 0x00, 0x01, 0x00, 0x00, 0x00,
  0x92, 0x50, 0x1f, 0x37, 0x11, 0x00, 0x00, 0x00, 0x74, 0x66, 0x6c, 0x2e,
  0x70, 0x73, 0x65, 0x75, 0x64, 0x6f, 0x5f, 0x71, 0x63, 0x6f, 0x6e, 0x73,
  0x74, 0x00, 0x00, 0x00, 0x01, 0x00, 0x00, 0x00, 0x01, 0x00, 0x00, 0x00,
  0x00, 0x00, 0x16, 0x00, 0x20, 0x00, 0x1c, 0x00, 0x1b, 0x00, 0x14, 0x00,
  0x10, 0x00, 0x0c, 0x00, 0x00, 0x00, 0x00, 0x00, 0x08, 0x00, 0x07, 0x00,
  0x16, 0x00, 0x00, 0x00, 0x00, 0x00, 0x00, 0x01, 0x18, 0x00, 0x00, 0x00,
  0x2c, 0x00, 0x00, 0x00, 0x48, 0x00, 0x00, 0x00, 0x01, 0x00, 0x00, 0x00,
  0x00, 0x00, 0x00, 0x09, 0x64, 0x00, 0x00, 0x00, 0x02, 0x00, 0x00, 0x00,
  0xff, 0xff, 0xff, 0xff, 0x07, 0x00, 0x00, 0x00, 0x0c, 0x00, 0x0c, 0x00,
  0x00, 0x00, 0x00, 0x00, 0x08, 0x00, 0x04, 0x00, 0x0c, 0x00, 0x00, 0x00,
  0x08, 0x00, 0x00, 0x00, 0x10, 0x00, 0x00, 0x00, 0x01, 0x00, 0x00, 0x00,
  0xff, 0xff, 0xff, 0xff, 0xff, 0xff, 0xff, 0xff, 0x01, 0x00, 0x00, 0x00,
  0x74, 0x80, 0x00, 0x3c, 0x21, 0x00, 0x00, 0x00, 0x73, 0x65, 0x72, 0x76,
  0x69, 0x6e, 0x67, 0x5f, 0x64, 0x65, 0x66, 0x61, 0x75, 0x6c, 0x74, 0x5f,
  0x6b, 0x65, 0x72, 0x61, 0x73, 0x5f, 0x74, 0x65, 0x6e, 0x73, 0x6f, 0x72,
  0x5f, 0x31, 0x38, 0x3a, 0x30, 0x00, 0x00, 0x00, 0x02, 0x00, 0x00, 0x00,
  0x01, 0x00, 0x00, 0x00, 0x07, 0x00, 0x00, 0x00, 0x01, 0x00, 0x00, 0x00,
  0x10, 0x00, 0x00, 0x00, 0x0c, 0x00, 0x10, 0x00, 0x0f, 0x00, 0x00, 0x00,
  0x08, 0x00, 0x04, 0x00, 0x0c, 0x00, 0x00, 0x00, 0x09, 0x00, 0x00, 0x00,
  0x04, 0x00, 0x00, 0x00, 0x00, 0x00, 0x00, 0x09,
};
const unsigned int new_sin_predictor_tflite_len = 10544;
