unsigned char new_sin_predictor_tflite[] = {
  0x20, 0x00, 0x00, 0x00, 0x54, 0x46, 0x4c, 0x33, 0x00, 0x00, 0x00, 0x00,
  0x14, 0x00, 0x20, 0x00, 0x1c, 0x00, 0x18, 0x00, 0x14, 0x00, 0x10, 0x00,
  0x0c, 0x00, 0x00, 0x00, 0x08, 0x00, 0x04, 0x00, 0x14, 0x00, 0x00, 0x00,
  0x1c, 0x00, 0x00, 0x00, 0x98, 0x00, 0x00, 0x00, 0x18, 0x01, 0x00, 0x00,
  0x5c, 0x16, 0x00, 0x00, 0x6c, 0x16, 0x00, 0x00, 0xb4, 0x28, 0x00, 0x00,
  0x03, 0x00, 0x00, 0x00, 0x01, 0x00, 0x00, 0x00, 0x10, 0x00, 0x00, 0x00,
  0x00, 0x00, 0x0a, 0x00, 0x10, 0x00, 0x0c, 0x00, 0x08, 0x00, 0x04, 0x00,
  0x0a, 0x00, 0x00, 0x00, 0x0c, 0x00, 0x00, 0x00, 0x1c, 0x00, 0x00, 0x00,
  0x3c, 0x00, 0x00, 0x00, 0x0f, 0x00, 0x00, 0x00, 0x73, 0x65, 0x72, 0x76,
  0x69, 0x6e, 0x67, 0x5f, 0x64, 0x65, 0x66, 0x61, 0x75, 0x6c, 0x74, 0x00,
  0x01, 0x00, 0x00, 0x00, 0x04, 0x00, 0x00, 0x00, 0x68, 0xff, 0xff, 0xff,
  0x09, 0x00, 0x00, 0x00, 0x04, 0x00, 0x00, 0x00, 0x08, 0x00, 0x00, 0x00,
  0x6f, 0x75, 0x74, 0x70, 0x75, 0x74, 0x5f, 0x30, 0x00, 0x00, 0x00, 0x00,
  0x01, 0x00, 0x00, 0x00, 0x04, 0x00, 0x00, 0x00, 0x36, 0xea, 0xff, 0xff,
  0x04, 0x00, 0x00, 0x00, 0x0c, 0x00, 0x00, 0x00, 0x6b, 0x65, 0x72, 0x61,
  0x73, 0x5f, 0x74, 0x65, 0x6e, 0x73, 0x6f, 0x72, 0x00, 0x00, 0x00, 0x00,
  0x03, 0x00, 0x00, 0x00, 0x5c, 0x00, 0x00, 0x00, 0x2c, 0x00, 0x00, 0x00,
  0x04, 0x00, 0x00, 0x00, 0xb8, 0xff, 0xff, 0xff, 0x0d, 0x00, 0x00, 0x00,
  0x04, 0x00, 0x00, 0x00, 0x13, 0x00, 0x00, 0x00, 0x43, 0x4f, 0x4e, 0x56,
  0x45, 0x52, 0x53, 0x49, 0x4f, 0x4e, 0x5f, 0x4d, 0x45, 0x54, 0x41, 0x44,
  0x41, 0x54, 0x41, 0x00, 0xdc, 0xff, 0xff, 0xff, 0x0c, 0x00, 0x00, 0x00,
  0x04, 0x00, 0x00, 0x00, 0x13, 0x00, 0x00, 0x00, 0x6d, 0x69, 0x6e, 0x5f,
  0x72, 0x75, 0x6e, 0x74, 0x69, 0x6d, 0x65, 0x5f, 0x76, 0x65, 0x72, 0x73,
  0x69, 0x6f, 0x6e, 0x00, 0x08, 0x00, 0x0c, 0x00, 0x08, 0x00, 0x04, 0x00,
  0x08, 0x00, 0x00, 0x00, 0x0b, 0x00, 0x00, 0x00, 0x04, 0x00, 0x00, 0x00,
  0x13, 0x00, 0x00, 0x00, 0x6d, 0x69, 0x6e, 0x5f, 0x72, 0x75, 0x6e, 0x74,
  0x69, 0x6d, 0x65, 0x5f, 0x76, 0x65, 0x72, 0x73, 0x69, 0x6f, 0x6e, 0x00,
  0x0e, 0x00, 0x00, 0x00, 0x40, 0x15, 0x00, 0x00, 0x38, 0x15, 0x00, 0x00,
  0x24, 0x15, 0x00, 0x00, 0xcc, 0x14, 0x00, 0x00, 0xbc, 0x13, 0x00, 0x00,
  0xac, 0x03, 0x00, 0x00, 0x9c, 0x02, 0x00, 0x00, 0xcc, 0x00, 0x00, 0x00,
  0xc4, 0x00, 0x00, 0x00, 0xbc, 0x00, 0x00, 0x00, 0xb4, 0x00, 0x00, 0x00,
  0x94, 0x00, 0x00, 0x00, 0x74, 0x00, 0x00, 0x00, 0x04, 0x00, 0x00, 0x00,
  0x12, 0xeb, 0xff, 0xff, 0x04, 0x00, 0x00, 0x00, 0x60, 0x00, 0x00, 0x00,
  0x0c, 0x00, 0x00, 0x00, 0x08, 0x00, 0x0e, 0x00, 0x08, 0x00, 0x04, 0x00,
  0x08, 0x00, 0x00, 0x00, 0x10, 0x00, 0x00, 0x00, 0x28, 0x00, 0x00, 0x00,
  0x00, 0x00, 0x06, 0x00, 0x08, 0x00, 0x04, 0x00, 0x06, 0x00, 0x00, 0x00,
  0x04, 0x00, 0x00, 0x00, 0x01, 0x00, 0x00, 0x00, 0xeb, 0x03, 0x00, 0x00,
  0x0c, 0x00, 0x18, 0x00, 0x14, 0x00, 0x10, 0x00, 0x0c, 0x00, 0x04, 0x00,
  0x0c, 0x00, 0x00, 0x00, 0x0b, 0x25, 0x4a, 0x9b, 0xab, 0x2e, 0x52, 0xca,
  0x02, 0x00, 0x00, 0x00, 0x02, 0x00, 0x00, 0x00, 0x04, 0x00, 0x00, 0x00,
  0x06, 0x00, 0x00, 0x00, 0x32, 0x2e, 0x31, 0x38, 0x2e, 0x30, 0x00, 0x00,
  0x7e, 0xeb, 0xff, 0xff, 0x04, 0x00, 0x00, 0x00, 0x10, 0x00, 0x00, 0x00,
  0x00, 0x00, 0x00, 0x00, 0x00, 0x00, 0x00, 0x00, 0x00, 0x00, 0x00, 0x00,
  0x00, 0x00, 0x00, 0x00, 0x9a, 0xeb, 0xff, 0xff, 0x04, 0x00, 0x00, 0x00,
  0x10, 0x00, 0x00, 0x00, 0x31, 0x2e, 0x31, 0x34, 0x2e, 0x30, 0x00, 0x00,
  0x00, 0x00, 0x00, 0x00, 0x00, 0x00, 0x00, 0x00, 0x24, 0xeb, 0xff, 0xff,
  0x28, 0xeb, 0xff, 0xff, 0x2c, 0xeb, 0xff, 0xff, 0xc2, 0xeb, 0xff, 0xff,
  0x04, 0x00, 0x00, 0x00, 0xc0, 0x01, 0x00, 0x00, 0xda, 0x5b, 0xd4, 0xf9,
  0x0b, 0xae, 0x81, 0xce, 0xc4, 0x09, 0x81, 0x92, 0xaf, 0x2f, 0x8e, 0x7f,
  0xc3, 0xbf, 0xf1, 0x56, 0xc4, 0x93, 0x63, 0x11, 0x2d, 0x81, 0xe2, 0x1c,
  0x03, 0x81, 0x13, 0xfe, 0xf3, 0x51, 0x23, 0x9b, 0x33, 0x18, 0xc0, 0x7f,
  0x42, 0xb9, 0x1e, 0x09, 0x81, 0xc4, 0x57, 0xc8, 0xd9, 0x2b, 0x96, 0xd1,
  0x57, 0x81, 0x9f, 0xaa, 0xd6, 0x77, 0x1d, 0x3b, 0x81, 0x2e, 0x48, 0xa2,
  0x13, 0x16, 0xa2, 0xa7, 0x81, 0xbe, 0xf4, 0x06, 0xe2, 0x4e, 0xf5, 0x81,
  0x7b, 0x79, 0x7f, 0x53, 0x0a, 0xee, 0x2a, 0xd1, 0x54, 0xf1, 0x23, 0x7f,
  0xd6, 0xff, 0xd0, 0x4c, 0x7f, 0xed, 0x5a, 0x5a, 0x63, 0xeb, 0x81, 0x85,
  0xf7, 0xf8, 0x56, 0xd7, 0x8d, 0xc8, 0x81, 0x04, 0xde, 0xce, 0x0d, 0x09,
  0x81, 0x67, 0xc9, 0xbe, 0x0d, 0x0d, 0x00, 0x81, 0xd6, 0x15, 0xe5, 0xc4,
  0x10, 0x1a, 0xa3, 0x7f, 0xe1, 0x9e, 0xec, 0x63, 0x41, 0x7f, 0xdd, 0x93,
  0xba, 0xf6, 0x3c, 0x2f, 0xd8, 0x37, 0xb2, 0x60, 0xd1, 0x21, 0x7f, 0xfd,
  0x03, 0x4e, 0xc4, 0xaf, 0xf8, 0x7f, 0x65, 0xd1, 0x37, 0xd2, 0xe5, 0x7f,
  0x5b, 0xfd, 0x14, 0xf1, 0x2a, 0xdb, 0x99, 0x7f, 0x8d, 0xf9, 0x9f, 0x83,
  0x81, 0x0c, 0xb7, 0x92, 0x18, 0x7f, 0x22, 0x73, 0xa3, 0x6b, 0x52, 0x05,
  0xa1, 0x32, 0xcb, 0xf8, 0x81, 0xa5, 0x95, 0x4f, 0xf0, 0x81, 0x15, 0x50,
  0xfb, 0x32, 0xb4, 0x34, 0x81, 0xfb, 0x3c, 0x9b, 0x49, 0x15, 0xf3, 0x6a,
  0x4b, 0x81, 0xe9, 0xab, 0x67, 0xd3, 0x81, 0xcd, 0x6c, 0xc3, 0x03, 0xc0,
  0xec, 0xf7, 0x21, 0x7f, 0x7f, 0x66, 0xf0, 0xdc, 0x91, 0x9b, 0x62, 0x78,
  0xa5, 0x7d, 0x2a, 0xd5, 0x7f, 0xaf, 0xf4, 0x40, 0xaf, 0x17, 0x9a, 0x81,
  0xa2, 0xd0, 0xa5, 0x35, 0xf9, 0x7f, 0x85, 0x5e, 0xf0, 0x06, 0x37, 0xa8,
  0x1f, 0x71, 0x81, 0xf2, 0xda, 0x7f, 0x3f, 0xe4, 0x99, 0x0d, 0x7f, 0xbd,
  0x87, 0xf8, 0x27, 0x1c, 0x20, 0xe1, 0x20, 0x9e, 0xba, 0x7f, 0xca, 0x71,
  0x49, 0x51, 0x7a, 0xf3, 0xae, 0x7f, 0x47, 0xd8, 0x6a, 0xbe, 0x0c, 0xe3,
  0x70, 0x81, 0xcc, 0x2a, 0x0f, 0xe4, 0x12, 0x2a, 0x7f, 0xdb, 0x7f, 0x43,
  0x85, 0xd0, 0x19, 0xab, 0xec, 0x13, 0x01, 0x69, 0xce, 0xbb, 0x7f, 0xed,
  0x28, 0xef, 0x10, 0xda, 0x62, 0x81, 0xb4, 0x0f, 0x79, 0xcc, 0x75, 0x00,
  0x7f, 0x48, 0x9e, 0x21, 0x58, 0xe1, 0xac, 0x7f, 0xc6, 0x02, 0x50, 0xcb,
  0xda, 0xe6, 0x7f, 0x00, 0xd7, 0xfe, 0x4b, 0x0d, 0x1b, 0x81, 0x05, 0x0b,
  0xfc, 0xd4, 0xe5, 0xfb, 0x7f, 0x0f, 0x55, 0xee, 0xae, 0x69, 0x7f, 0x9c,
  0x25, 0xf0, 0x68, 0xfa, 0x81, 0x08, 0x1d, 0xe9, 0x34, 0x8d, 0x7f, 0x2e,
  0xae, 0x23, 0x82, 0xfa, 0x39, 0xa8, 0x7f, 0x44, 0x30, 0x9d, 0xd0, 0x36,
  0x35, 0x07, 0xd4, 0x81, 0x12, 0xde, 0x0e, 0xe0, 0xaf, 0x7f, 0x92, 0x7f,
  0x9f, 0xfa, 0xe8, 0x83, 0xff, 0xa8, 0xce, 0xbd, 0x7f, 0x22, 0xd2, 0x9a,
  0xe4, 0xf1, 0xda, 0x24, 0xfa, 0x5b, 0xd5, 0x81, 0xeb, 0x13, 0xf5, 0x42,
  0xce, 0xd5, 0x81, 0xba, 0xc3, 0x09, 0x04, 0x9f, 0xb9, 0x81, 0x59, 0xe6,
  0x96, 0x00, 0x20, 0x35, 0x81, 0x3d, 0xdd, 0xb8, 0x14, 0x59, 0xbd, 0x81,
  0x8e, 0xed, 0xff, 0xff, 0x04, 0x00, 0x00, 0x00, 0x00, 0x01, 0x00, 0x00,
  0x18, 0xf4, 0xff, 0xff, 0x85, 0x1c, 0x00, 0x00, 0xeb, 0x00, 0x00, 0x00,
  0x0d, 0xed, 0xff, 0xff, 0xf3, 0x11, 0x00, 0x00, 0x1e, 0xd5, 0xff, 0xff,
  0x72, 0x15, 0x00, 0x00, 0x09, 0xf7, 0xff, 0xff, 0x04, 0x01, 0x00, 0x00,
  0x94, 0xe7, 0xff, 0xff, 0x63, 0x12, 0x00, 0x00, 0x73, 0xf3, 0xff, 0xff,
  0xd9, 0x0a, 0x00, 0x00, 0x4c, 0x11, 0x00, 0x00, 0xb1, 0x04, 0x00, 0x00,
  0xda, 0xea, 0xff, 0xff, 0xeb, 0xeb, 0xff, 0xff, 0xb7, 0xcb, 0xff, 0xff,
  0x05, 0xb5, 0xff, 0xff, 0x9b, 0xfc, 0xff, 0xff, 0x55, 0xfe, 0xff, 0xff,
  0x0e, 0x19, 0x00, 0x00, 0x2e, 0x03, 0x00, 0x00, 0x4f, 0x0d, 0x00, 0x00,
  0x3e, 0xd3, 0xff, 0xff, 0x7b, 0xec, 0xff, 0xff, 0x19, 0xf8, 0xff, 0xff,
  0xf6, 0xd5, 0xff, 0xff, 0xca, 0xf6, 0xff, 0xff, 0xa3, 0xe9, 0xff, 0xff,
  0x14, 0xf0, 0xff, 0xff, 0x6b, 0xe5, 0xff, 0xff, 0xc9, 0xea, 0xff, 0xff,
  0x3c, 0xd5, 0xff, 0xff, 0xab, 0xf0, 0xff, 0xff, 0x6e, 0x0e, 0x00, 0x00,
  0xce, 0x0c, 0x00, 0x00, 0x00, 0xf3, 0xff, 0xff, 0x20, 0x06, 0x00, 0x00,
  0xb9, 0xf4, 0xff, 0xff, 0x9b, 0xf1, 0xff, 0xff, 0x13, 0x14, 0x00, 0x00,
  0x55, 0xdf, 0xff, 0xff, 0x51, 0x0f, 0x00, 0x00, 0x17, 0xfd, 0xff, 0xff,
  0x87, 0x03, 0x00, 0x00, 0xb4, 0xe5, 0xff, 0xff, 0xf1, 0x17, 0x00, 0x00,
  0x03, 0x1b, 0x00, 0x00, 0x61, 0xf8, 0xff, 0xff, 0xa5, 0xfe, 0xff, 0xff,
  0xbd, 0x16, 0x00, 0x00, 0xff, 0xe9, 0xff, 0xff, 0x38, 0x11, 0x00, 0x00,
  0x3e, 0xfb, 0xff, 0xff, 0x38, 0x0d, 0x00, 0x00, 0xed, 0xf7, 0xff, 0xff,
  0x5c, 0xd6, 0xff, 0xff, 0xdc, 0x15, 0x00, 0x00, 0xbb, 0xfb, 0xff, 0xff,
  0x06, 0xec, 0xff, 0xff, 0x7d, 0xec, 0xff, 0xff, 0x85, 0xf0, 0xff, 0xff,
  0x70, 0x15, 0x00, 0x00, 0x9a, 0xee, 0xff, 0xff, 0x04, 0x00, 0x00, 0x00,
  0x00, 0x10, 0x00, 0x00, 0xe2, 0xe8, 0x85, 0xdc, 0xfe, 0x6a, 0xe5, 0xe1,
  0x00, 0xdb, 0x06, 0x05, 0xe6, 0x1b, 0xf0, 0x0e, 0x93, 0x58, 0xdb, 0xfc,
  0x1f, 0xf8, 0xf6, 0xb9, 0xe1, 0x19, 0x14, 0x12, 0xcb, 0x33, 0x06, 0xf2,
  0xec, 0x7f, 0xf6, 0xe3, 0x33, 0xfa, 0xed, 0x15, 0x07, 0xee, 0xe1, 0x17,
  0xfb, 0xf5, 0xf5, 0x15, 0xff, 0xf5, 0xb6, 0x1b, 0x2a, 0x23, 0x2f, 0x02,
  0x2c, 0x27, 0xe1, 0xdd, 0x2f, 0x1b, 0xfa, 0x1d, 0xfc, 0xf8, 0xd5, 0x1c,
  0x00, 0xff, 0xf4, 0x0a, 0xfe, 0xfd, 0xe8, 0xf8, 0xf8, 0xfd, 0x12, 0x1e,
  0x05, 0x10, 0x81, 0x13, 0xfd, 0x06, 0x04, 0x0a, 0xed, 0x18, 0xe7, 0x1c,
  0xfc, 0x20, 0xe4, 0xf9, 0xee, 0x00, 0x0d, 0x10, 0x09, 0x07, 0x0d, 0x04,
  0xff, 0xf1, 0x15, 0xff, 0x23, 0xf4, 0xf2, 0x26, 0x0c, 0x0a, 0xf5, 0x0d,
  0x0e, 0x0a, 0x01, 0x0a, 0xec, 0xe9, 0x0d, 0x28, 0x04, 0x06, 0x0a, 0x06,
  0xfb, 0x0a, 0x22, 0xe2, 0xfb, 0x81, 0x11, 0xf3, 0xec, 0x08, 0x03, 0x06,
  0x09, 0xf3, 0x02, 0xf2, 0xfd, 0x52, 0xac, 0xff, 0xcf, 0x15, 0xfd, 0xfb,
  0x0f, 0xf9, 0x24, 0x1b, 0xfc, 0x26, 0x31, 0x08, 0xee, 0x08, 0xf3, 0x27,
  0x27, 0x03, 0xf1, 0x21, 0xf7, 0xd9, 0xd7, 0x00, 0xf9, 0xeb, 0x01, 0x1d,
  0xfd, 0xe0, 0x23, 0xcf, 0x49, 0x25, 0x08, 0x0b, 0xb8, 0x21, 0xf9, 0xdb,
  0xdf, 0xf2, 0x9f, 0xdb, 0x04, 0x10, 0x0f, 0x02, 0x09, 0xde, 0x02, 0xf3,
  0xea, 0x01, 0xf2, 0xf9, 0x01, 0x02, 0xf7, 0x14, 0x13, 0xe3, 0x81, 0x01,
  0xe8, 0xf5, 0x0a, 0xff, 0x0c, 0xf9, 0x0e, 0x25, 0xf2, 0xfa, 0xfb, 0x05,
  0xeb, 0x23, 0xf6, 0xf5, 0x01, 0xfa, 0xf7, 0x1b, 0xf8, 0xfd, 0xf7, 0xf8,
  0x0b, 0x06, 0xfb, 0xfd, 0x0b, 0x14, 0x11, 0xf3, 0xd3, 0xe2, 0xf5, 0xf8,
  0xf9, 0x09, 0x08, 0x00, 0xf9, 0x06, 0xf6, 0xf8, 0xed, 0xff, 0x0b, 0xfe,
  0x03, 0xef, 0xe9, 0xff, 0xfb, 0x09, 0xf0, 0x0b, 0xfb, 0x14, 0x07, 0xda,
  0x4f, 0x81, 0x7a, 0x0e, 0xdd, 0x13, 0xf9, 0xec, 0xf5, 0xdb, 0xf1, 0xd2,
  0xf0, 0x0d, 0x00, 0x0d, 0x0b, 0x0a, 0xfb, 0x0a, 0xfc, 0x14, 0xe9, 0x11,
  0x0f, 0x37, 0xf1, 0xfc, 0xe5, 0xef, 0xf4, 0xf8, 0x14, 0xef, 0xfc, 0x20,
  0xe6, 0xfb, 0xd6, 0x04, 0xf5, 0xf4, 0xfc, 0x00, 0x21, 0xe8, 0x0a, 0x06,
  0xf0, 0xf0, 0x14, 0xf1, 0x1d, 0x72, 0xfa, 0xdd, 0xf9, 0x05, 0x19, 0xf7,
  0xe6, 0x08, 0x0a, 0xed, 0x34, 0x22, 0xb4, 0xe6, 0x1a, 0xef, 0x0c, 0xd6,
  0x13, 0x0a, 0x0b, 0xf8, 0xea, 0x04, 0xd4, 0xf3, 0x08, 0x81, 0x08, 0x1f,
  0xfa, 0xeb, 0xf8, 0x08, 0x00, 0xed, 0xff, 0xe9, 0x45, 0xdf, 0xff, 0x04,
  0x12, 0xf3, 0x00, 0x2e, 0xfd, 0x26, 0x43, 0xf6, 0x04, 0x11, 0xea, 0xfb,
  0xe6, 0xf7, 0xff, 0x17, 0x07, 0x21, 0x60, 0x2b, 0xfe, 0x3a, 0xed, 0xfa,
  0xe8, 0x04, 0x09, 0xe9, 0x10, 0xf6, 0x17, 0x13, 0x8d, 0x25, 0x7f, 0x1b,
  0xee, 0x05, 0xfa, 0xf2, 0x39, 0xdb, 0x1b, 0x03, 0x33, 0x23, 0x19, 0x20,
  0xd7, 0x6f, 0x15, 0x1f, 0xd7, 0xf9, 0x13, 0x26, 0x18, 0xe4, 0xf1, 0xf0,
  0xf1, 0x29, 0xfd, 0xd8, 0x22, 0xf0, 0x01, 0x21, 0xcc, 0xc2, 0x35, 0xf9,
  0x3b, 0xf5, 0x0a, 0x12, 0xfb, 0x18, 0xf1, 0xf0, 0x1d, 0xe0, 0x2a, 0xa3,
  0xd3, 0x3d, 0x2f, 0x3a, 0x1b, 0xe9, 0x31, 0x0b, 0x25, 0xf5, 0xf5, 0x29,
  0x28, 0x81, 0xed, 0xd6, 0x1f, 0x20, 0x0f, 0xe6, 0x19, 0x26, 0xc0, 0xc8,
  0x1c, 0xe4, 0x22, 0x1e, 0xc7, 0x10, 0x09, 0x16, 0x15, 0xc8, 0x0c, 0xe1,
  0xfc, 0xad, 0x00, 0xfa, 0x3f, 0xe3, 0x3f, 0x3b, 0xcf, 0x25, 0x2d, 0x3b,
  0x07, 0xf8, 0x06, 0x28, 0xef, 0x07, 0x25, 0x35, 0x13, 0xfa, 0x0f, 0x04,
  0xf2, 0x0b, 0xe6, 0x53, 0x14, 0x66, 0xf9, 0xdd, 0xfe, 0x01, 0xe3, 0xff,
  0x1d, 0xfa, 0xef, 0xe8, 0x7f, 0x0c, 0x87, 0x0b, 0xf2, 0xcf, 0xf8, 0x06,
  0x16, 0xfd, 0xdd, 0x8b, 0xd8, 0x19, 0x0e, 0x03, 0xfc, 0xcd, 0x18, 0xea,
  0x2c, 0x15, 0x09, 0x11, 0x05, 0x11, 0xff, 0xfd, 0xf3, 0x10, 0x1a, 0xf1,
  0xf8, 0xf4, 0xef, 0x2d, 0x22, 0x07, 0x21, 0x08, 0x44, 0x04, 0x19, 0xdf,
  0xe6, 0x08, 0xe4, 0x03, 0xf4, 0xf9, 0xf8, 0x33, 0x06, 0xf7, 0x02, 0xe4,
  0x1b, 0x05, 0xfc, 0x05, 0xfc, 0xfd, 0xf9, 0xe0, 0x81, 0xfa, 0x60, 0x0d,
  0xff, 0xf8, 0xf1, 0xfc, 0xfe, 0xfc, 0xea, 0xe8, 0xef, 0xfc, 0x0e, 0xea,
  0x01, 0xfa, 0x04, 0x01, 0x16, 0xfc, 0x0e, 0x17, 0x07, 0x09, 0xf4, 0x0a,
  0x1a, 0x38, 0xf9, 0xee, 0x0a, 0x0c, 0x07, 0x21, 0x33, 0x00, 0x07, 0x02,
  0xce, 0x0a, 0x00, 0xe5, 0x01, 0xec, 0x17, 0xea, 0x22, 0x17, 0xfe, 0xdf,
  0x1d, 0x24, 0xe9, 0xd3, 0xee, 0xe1, 0x0a, 0xf5, 0x1c, 0x07, 0xf2, 0x0f,
  0x09, 0xe5, 0x16, 0x16, 0x2b, 0xf6, 0xfd, 0x24, 0x07, 0x27, 0xe7, 0x3c,
  0xf3, 0x25, 0xe0, 0x19, 0x06, 0x7f, 0x1a, 0xec, 0xf2, 0xe0, 0xfe, 0xee,
  0xfe, 0xc6, 0x47, 0xe4, 0xff, 0xe4, 0x1e, 0x42, 0x20, 0xf0, 0x09, 0x20,
  0xde, 0xf0, 0x02, 0xf1, 0xc1, 0xf4, 0xdc, 0xe3, 0xfb, 0x00, 0x29, 0xf3,
  0x0d, 0x05, 0xfc, 0x01, 0x03, 0xdb, 0x08, 0xf4, 0x0a, 0xf9, 0x06, 0xf9,
  0xf6, 0x09, 0xf9, 0xf2, 0x04, 0x17, 0x81, 0xf1, 0x08, 0xfa, 0x09, 0x17,
  0xf5, 0xf2, 0xf0, 0xe2, 0xf8, 0xd7, 0xe6, 0xfd, 0xed, 0x22, 0xfd, 0xe8,
  0x08, 0xf3, 0xff, 0x0b, 0x04, 0x23, 0xf3, 0xfb, 0x25, 0xef, 0xea, 0x1e,
  0xfb, 0xe7, 0xfc, 0xee, 0xfc, 0x08, 0xfe, 0xe6, 0xf9, 0x09, 0x07, 0xf5,
  0xf8, 0xfa, 0x31, 0x00, 0x0c, 0x00, 0x12, 0x18, 0x23, 0x03, 0x14, 0x02,
  0xdc, 0xf5, 0x1d, 0x0b, 0xe7, 0xef, 0x0f, 0x35, 0x5b, 0x22, 0x41, 0x0f,
  0x26, 0x0f, 0x1c, 0x1f, 0x06, 0xf0, 0xe6, 0x7e, 0xe4, 0xe1, 0xd5, 0x18,
  0x06, 0x81, 0x15, 0xe9, 0x17, 0xeb, 0x20, 0x17, 0x07, 0x08, 0x09, 0xf7,
  0xfe, 0x2b, 0x1b, 0xd8, 0xf4, 0x15, 0x00, 0x1f, 0xc6, 0xdb, 0x08, 0xf4,
  0x44, 0x06, 0xee, 0xd5, 0xea, 0x05, 0xd1, 0xfc, 0xf3, 0xfa, 0xc4, 0x22,
  0xfe, 0x8d, 0x04, 0xfe, 0xfe, 0x05, 0x40, 0x07, 0x0b, 0xdd, 0xfc, 0x22,
  0xd6, 0xf4, 0x81, 0x05, 0x0f, 0xfb, 0xff, 0x15, 0x15, 0xeb, 0xf8, 0xff,
  0x21, 0xee, 0xfd, 0x32, 0x0d, 0xbe, 0xf7, 0x15, 0x0f, 0x00, 0x06, 0x1c,
  0x16, 0x3b, 0xea, 0xf1, 0x27, 0x38, 0x16, 0xff, 0x04, 0x0c, 0x02, 0xd5,
  0xdd, 0x2b, 0xe4, 0x02, 0xc0, 0xef, 0x13, 0x19, 0x01, 0x07, 0x13, 0xfb,
  0xee, 0x07, 0x06, 0x04, 0x09, 0x0d, 0xeb, 0x17, 0xf0, 0x01, 0xef, 0xef,
  0xef, 0xe1, 0x0d, 0xe6, 0x8f, 0x81, 0x44, 0x04, 0xec, 0x1a, 0x08, 0xf7,
  0x11, 0xfa, 0xf1, 0x0c, 0xf1, 0xfb, 0xcd, 0x1d, 0xe9, 0x34, 0x16, 0x08,
  0xeb, 0x08, 0x0e, 0xdc, 0x06, 0xfc, 0x14, 0x0d, 0x46, 0x01, 0x10, 0x31,
  0x10, 0x15, 0xf8, 0xde, 0x01, 0x10, 0x20, 0x08, 0xe2, 0xbf, 0x18, 0x02,
  0x2e, 0x0e, 0x2b, 0x11, 0xfd, 0x06, 0x5e, 0xd6, 0x22, 0x3a, 0xe8, 0xbb,
  0xfd, 0xf2, 0x81, 0xe7, 0x04, 0x11, 0x16, 0x07, 0xca, 0x94, 0xba, 0x13,
  0xea, 0x09, 0xfc, 0xc6, 0x13, 0x1b, 0xb9, 0x02, 0xff, 0x12, 0xef, 0x00,
  0x11, 0x9e, 0xe1, 0xeb, 0x1e, 0xfe, 0x1a, 0x3c, 0xf2, 0xc9, 0x51, 0x31,
  0xa3, 0xd2, 0xd2, 0xad, 0xe0, 0xe7, 0x20, 0x30, 0xd1, 0xf7, 0x0a, 0x1e,
  0xfe, 0xfb, 0x2a, 0x33, 0x19, 0x00, 0x14, 0xf3, 0x09, 0xf3, 0xbb, 0x81,
  0x04, 0xa8, 0x25, 0xd9, 0xdf, 0x02, 0x9c, 0x15, 0x22, 0xe2, 0x1e, 0x37,
  0xda, 0xbb, 0xc7, 0xf2, 0xe9, 0xd3, 0xea, 0x9c, 0xe9, 0xc2, 0x20, 0x51,
  0xcf, 0x08, 0xbc, 0x39, 0x20, 0x43, 0xe2, 0xef, 0x03, 0xe7, 0x00, 0x01,
  0x02, 0x2f, 0x38, 0x20, 0xb1, 0xd6, 0xfd, 0x99, 0xf1, 0xfe, 0x28, 0x0e,
  0xe7, 0x1f, 0xf3, 0xff, 0x4b, 0xf3, 0xe6, 0x1d, 0x07, 0xd5, 0xfa, 0xdb,
  0xed, 0x0b, 0xf1, 0x01, 0xec, 0x38, 0xfd, 0x24, 0x0b, 0x15, 0xfd, 0xf3,
  0xf5, 0xf8, 0x00, 0x26, 0x69, 0xe7, 0x81, 0xf1, 0xf2, 0xef, 0x10, 0xfa,
  0xf9, 0xf2, 0x06, 0x0d, 0x12, 0x19, 0x0f, 0xec, 0xec, 0xb1, 0xed, 0x0b,
  0x24, 0x15, 0xf5, 0x1f, 0x00, 0x05, 0xf4, 0xfb, 0x14, 0xd0, 0xe6, 0x23,
  0x15, 0x00, 0xf3, 0xfd, 0xef, 0x16, 0x05, 0x0b, 0x47, 0xe3, 0x07, 0xf1,
  0x0d, 0x0e, 0x29, 0xfd, 0xe1, 0xfe, 0x11, 0xdd, 0xca, 0xa5, 0xff, 0xf9,
  0xd1, 0xd8, 0x1c, 0xef, 0xb0, 0x01, 0x22, 0xda, 0x5e, 0x2f, 0x5a, 0x98,
  0xce, 0xcd, 0xd2, 0xbb, 0xfb, 0x09, 0xeb, 0xc0, 0x14, 0xc4, 0x46, 0x1b,
  0xc4, 0x7f, 0x13, 0x0f, 0xc9, 0xf6, 0xd1, 0xca, 0x03, 0xf5, 0x07, 0x20,
  0xea, 0xf7, 0xce, 0x40, 0xf0, 0x24, 0xc9, 0xe9, 0xc6, 0xe4, 0x49, 0x2b,
  0x6d, 0xfd, 0x04, 0x40, 0x22, 0xd6, 0x55, 0x20, 0xed, 0x03, 0x34, 0x46,
  0xed, 0x22, 0xd6, 0xe6, 0x08, 0xf7, 0x09, 0x06, 0xf4, 0x0b, 0x12, 0xe8,
  0x3d, 0xfa, 0xcf, 0xde, 0xe9, 0x03, 0xec, 0x1a, 0x03, 0xf4, 0x1c, 0x7f,
  0xef, 0x02, 0x19, 0x11, 0xe8, 0x2a, 0xf9, 0x07, 0x2c, 0x14, 0xe0, 0xe7,
  0xe8, 0xe0, 0xe8, 0x0d, 0xf5, 0xe2, 0xf0, 0x38, 0x14, 0x0b, 0xe5, 0x10,
  0x35, 0xef, 0xfd, 0xf6, 0xfe, 0xe4, 0x1b, 0x0f, 0x23, 0xf4, 0xe0, 0xe1,
  0x16, 0xf5, 0x3e, 0x36, 0x1e, 0xf1, 0xff, 0x07, 0x0f, 0xf3, 0xdb, 0xf9,
  0xeb, 0x00, 0x04, 0x22, 0xa7, 0xf7, 0xd6, 0xd6, 0xbc, 0x09, 0xfe, 0x31,
  0xf1, 0x10, 0x34, 0xcf, 0xe5, 0x20, 0xf9, 0xd7, 0x27, 0xb2, 0x10, 0xda,
  0x30, 0xf0, 0xe5, 0x29, 0xf5, 0x35, 0x87, 0x15, 0xe0, 0x41, 0x0a, 0xc7,
  0xb5, 0x18, 0xc5, 0x0b, 0x49, 0xe3, 0x10, 0x03, 0x7f, 0xdd, 0x14, 0x0c,
  0x1a, 0xdc, 0xf0, 0x23, 0x08, 0x0b, 0xe9, 0xed, 0x07, 0x42, 0xde, 0x2a,
  0xca, 0x11, 0x34, 0x08, 0x2c, 0xd8, 0xfc, 0x05, 0x8b, 0xc1, 0xfa, 0xfa,
  0xf7, 0x00, 0x2b, 0x37, 0x23, 0x06, 0x38, 0xa6, 0x67, 0x6a, 0x63, 0x13,
  0x02, 0x07, 0x22, 0xf7, 0xda, 0xf3, 0x22, 0xff, 0x00, 0xf5, 0xc1, 0x08,
  0xf2, 0xa3, 0x85, 0x23, 0xe2, 0xbc, 0xdc, 0xca, 0x3c, 0xf2, 0x36, 0xdd,
  0xd9, 0xfe, 0xf1, 0x81, 0x32, 0xf9, 0x2c, 0xd0, 0x1f, 0x0b, 0xf0, 0xdb,
  0xfa, 0xe0, 0xed, 0x15, 0x0d, 0xfd, 0x2a, 0x11, 0x18, 0xec, 0x0f, 0xe6,
  0x96, 0x3c, 0x81, 0x06, 0xe9, 0xf6, 0xe9, 0xe9, 0x0e, 0x1d, 0x07, 0xa4,
  0xf0, 0xf8, 0x10, 0xdc, 0x0e, 0x16, 0x1b, 0xf5, 0x18, 0x1c, 0xe2, 0xe7,
  0xdc, 0x34, 0xe6, 0xfe, 0x19, 0x02, 0x14, 0xbb, 0x0f, 0x19, 0xe8, 0xc8,
  0xf2, 0xee, 0xee, 0x00, 0x19, 0x18, 0x15, 0xf7, 0x2b, 0x0d, 0x02, 0x20,
  0x1b, 0x0b, 0x97, 0xf8, 0x0c, 0x2e, 0x11, 0xed, 0xfb, 0xfd, 0x0e, 0x10,
  0x02, 0x05, 0x0e, 0x11, 0x6e, 0x17, 0xb4, 0xfe, 0xc5, 0xfb, 0x02, 0xe7,
  0xfe, 0xed, 0x46, 0x53, 0x24, 0xee, 0x15, 0xf5, 0x00, 0x64, 0x15, 0xe8,
  0x2c, 0xfa, 0x01, 0xdf, 0xf9, 0x26, 0x0c, 0xf6, 0x8f, 0xfd, 0xf5, 0x81,
  0x02, 0x0a, 0xd9, 0xe8, 0x40, 0xbe, 0x1b, 0x06, 0x73, 0x12, 0x22, 0xf9,
  0xf4, 0x06, 0xca, 0x2a, 0xe0, 0xf9, 0x22, 0x33, 0x30, 0xce, 0xe6, 0x1c,
  0xf2, 0xe6, 0xcb, 0xfb, 0x13, 0x16, 0xee, 0xe6, 0x11, 0x93, 0x81, 0x09,
  0xdd, 0xfe, 0x04, 0x22, 0x1f, 0xfb, 0x06, 0x0f, 0x0b, 0xf0, 0x29, 0xe7,
  0xf6, 0x7f, 0xfc, 0xc7, 0x0b, 0x1e, 0xf8, 0xde, 0x01, 0x26, 0x0d, 0xf6,
  0xbb, 0x2c, 0xfc, 0x02, 0x01, 0xe0, 0xe6, 0xe1, 0xc7, 0x10, 0xfe, 0x0e,
  0x8f, 0xd4, 0xdf, 0xdb, 0xdf, 0x0c, 0xfb, 0xe3, 0x0d, 0x11, 0x58, 0x15,
  0x01, 0xc8, 0x1b, 0xd9, 0x17, 0xfc, 0xf0, 0x0b, 0x0d, 0xf9, 0xe6, 0xf9,
  0x7f, 0x1b, 0xb8, 0xda, 0x1f, 0xf2, 0xec, 0xef, 0x14, 0xd4, 0xda, 0xea,
  0xfc, 0x29, 0xee, 0x24, 0xeb, 0x7e, 0xec, 0x0e, 0xf2, 0x02, 0xf8, 0xf4,
  0xed, 0x25, 0x0e, 0x01, 0x1a, 0x01, 0x0f, 0xec, 0x22, 0x06, 0x03, 0xef,
  0xed, 0xe6, 0x0f, 0x01, 0x3b, 0x1a, 0x17, 0xf4, 0x21, 0xe8, 0x17, 0x06,
  0xfd, 0xf6, 0xe0, 0xc2, 0xe8, 0x83, 0xf8, 0xd7, 0x00, 0xf2, 0x31, 0xf3,
  0x13, 0x05, 0x02, 0x10, 0x0d, 0xdf, 0x81, 0x01, 0xeb, 0xfe, 0xfd, 0x0c,
  0xf6, 0xfb, 0x15, 0x26, 0xe1, 0xde, 0x14, 0x0a, 0x05, 0x0b, 0xf2, 0x02,
  0xd4, 0xee, 0xfd, 0xfc, 0xf2, 0x2a, 0x07, 0xf0, 0x06, 0xf7, 0x1d, 0x33,
  0xfe, 0xfd, 0x1a, 0xe8, 0x03, 0xfd, 0xe8, 0x03, 0x34, 0x11, 0xe6, 0x28,
  0x00, 0xf5, 0x12, 0x18, 0x0f, 0xf2, 0xcb, 0x35, 0xf4, 0xd1, 0xf5, 0x12,
  0x29, 0x08, 0x2c, 0x08, 0x0c, 0x0c, 0x08, 0x0a, 0x81, 0xbd, 0x01, 0xfc,
  0x07, 0x0a, 0x11, 0x08, 0xfc, 0xf4, 0x03, 0xaf, 0xf5, 0xf7, 0x05, 0xec,
  0x0e, 0x0b, 0x12, 0x14, 0x19, 0x04, 0x13, 0x0e, 0x01, 0xf4, 0x02, 0xfb,
  0x05, 0xf5, 0xe5, 0x43, 0xf2, 0x15, 0x09, 0xf7, 0x11, 0x2d, 0x07, 0xf3,
  0xb8, 0x12, 0x0b, 0xf9, 0xf5, 0xf8, 0x00, 0x12, 0x19, 0xea, 0xc4, 0x2b,
  0x0c, 0xa9, 0x15, 0x30, 0x21, 0x1a, 0x28, 0xef, 0x08, 0xe1, 0xfe, 0xeb,
  0x7f, 0x2e, 0xb3, 0x02, 0xec, 0x19, 0x02, 0xd1, 0xec, 0x2c, 0xd3, 0xd0,
  0x15, 0x29, 0x10, 0x00, 0x05, 0xcb, 0x05, 0x0e, 0x25, 0xe8, 0x13, 0x08,
  0x04, 0xc7, 0xd0, 0xf5, 0x25, 0x0a, 0x13, 0x02, 0xe4, 0xec, 0xef, 0xd2,
  0x2d, 0xec, 0xf5, 0x07, 0x97, 0xbf, 0x17, 0x06, 0x12, 0x09, 0x1b, 0x11,
  0xf7, 0xda, 0xf8, 0xfb, 0xd2, 0x3f, 0x50, 0x4b, 0xfe, 0xd4, 0xef, 0xe7,
  0x03, 0x09, 0x32, 0xb3, 0xc4, 0x55, 0xec, 0x32, 0xf2, 0xe2, 0xf7, 0x16,
  0x70, 0x37, 0x05, 0xef, 0xd3, 0xae, 0x4b, 0x5a, 0x24, 0x84, 0xfa, 0x34,
  0x44, 0x0e, 0x07, 0x6e, 0xce, 0x10, 0xc0, 0x07, 0xf2, 0x3e, 0xc6, 0x19,
  0x0d, 0xc2, 0x10, 0x03, 0x0c, 0x32, 0x4c, 0xd2, 0x41, 0xb9, 0xd5, 0x93,
  0x1e, 0xdd, 0x7f, 0x04, 0xff, 0x0a, 0x26, 0xcb, 0xf3, 0x35, 0x10, 0xfd,
  0xe2, 0x00, 0x07, 0xfd, 0x17, 0xfb, 0xfd, 0xe3, 0xb0, 0xbb, 0x81, 0xfc,
  0x0a, 0x02, 0xf3, 0x10, 0xf0, 0xed, 0xe7, 0xbc, 0x18, 0x03, 0xec, 0xed,
  0x10, 0xf9, 0xfa, 0x14, 0xf8, 0xfc, 0x00, 0x00, 0xea, 0xef, 0xf3, 0x03,
  0x0f, 0x22, 0x15, 0x02, 0xe3, 0x07, 0xeb, 0xf4, 0xeb, 0xfa, 0xf6, 0xff,
  0x37, 0x15, 0xf7, 0xeb, 0xe2, 0xf9, 0x19, 0xf9, 0x02, 0xf5, 0x47, 0x3f,
  0x1e, 0xcd, 0xfe, 0x12, 0x1a, 0xe3, 0x1f, 0x0e, 0x01, 0x03, 0xe9, 0x1a,
  0xca, 0xf3, 0x7f, 0x11, 0x10, 0x10, 0x13, 0xec, 0xd0, 0xe6, 0xdf, 0xfc,
  0x27, 0xf5, 0xe6, 0xe4, 0x19, 0xe3, 0x01, 0x15, 0x2c, 0x00, 0xe8, 0xd3,
  0xed, 0xd0, 0xcb, 0xf7, 0x33, 0xd6, 0xd0, 0xaf, 0xfd, 0xf1, 0xe0, 0x00,
  0xe6, 0x07, 0x27, 0xf0, 0x4b, 0x13, 0x0a, 0xe7, 0xec, 0x03, 0x35, 0x04,
  0xf8, 0xf3, 0xf3, 0x3c, 0xdd, 0xdc, 0xec, 0xff, 0x0a, 0xef, 0xdf, 0x0a,
  0x10, 0x22, 0x01, 0xea, 0x95, 0x49, 0x7f, 0x0d, 0xe7, 0x0d, 0xff, 0xdf,
  0xdc, 0xf4, 0xf5, 0xf3, 0xf1, 0x01, 0xed, 0xf5, 0xf4, 0x2f, 0xf1, 0x0d,
  0xe1, 0xf4, 0x10, 0x04, 0x12, 0x1a, 0x26, 0x06, 0x2e, 0xf5, 0xf7, 0xf6,
  0x00, 0xf2, 0xf2, 0x02, 0x27, 0xd5, 0xf5, 0xf8, 0x4a, 0x05, 0xf0, 0xe3,
  0x0d, 0x0c, 0xe3, 0xec, 0x19, 0x14, 0x31, 0x98, 0xf8, 0xc0, 0xf2, 0x2f,
  0x06, 0x0e, 0xdb, 0x0c, 0xd7, 0x00, 0x0d, 0xea, 0x5b, 0x6a, 0x34, 0x1f,
  0x15, 0xf0, 0x19, 0xf0, 0xe7, 0x19, 0x0e, 0x81, 0x34, 0xeb, 0x2c, 0xff,
  0x17, 0xc6, 0x0c, 0xf4, 0xdf, 0x14, 0x0e, 0xfe, 0x07, 0x33, 0x37, 0xf7,
  0xd0, 0xe5, 0xfc, 0x0d, 0xf7, 0xf9, 0xf9, 0x15, 0x14, 0x0d, 0xcc, 0xf2,
  0x71, 0xe0, 0xf3, 0xfe, 0xeb, 0x01, 0xe9, 0x0b, 0xf5, 0x09, 0x07, 0xd4,
  0xe4, 0x20, 0x08, 0xe7, 0x12, 0xf7, 0x20, 0xfe, 0xf6, 0xfd, 0x10, 0x04,
  0x81, 0x22, 0xdd, 0xfb, 0x01, 0x03, 0x0e, 0x19, 0xe4, 0xff, 0x1b, 0xd5,
  0x00, 0x0a, 0xe1, 0xeb, 0x0e, 0x0e, 0x01, 0xf5, 0xf7, 0xf3, 0x0f, 0x0e,
  0x06, 0xe5, 0xd1, 0xf4, 0x04, 0xea, 0x03, 0xf4, 0xfb, 0x0e, 0x08, 0xea,
  0x12, 0x06, 0xe6, 0x0a, 0xf7, 0xf4, 0x05, 0x0b, 0xdf, 0xf4, 0x20, 0x0b,
  0x25, 0x09, 0x8b, 0x1b, 0x0e, 0x37, 0xdb, 0x2e, 0x1b, 0x15, 0x4e, 0x0e,
  0x1d, 0x1d, 0xf2, 0xdb, 0xa1, 0xe5, 0x7f, 0xf2, 0x27, 0xe8, 0x20, 0xe3,
  0x0c, 0x10, 0x3a, 0x0c, 0x04, 0x49, 0xe9, 0x16, 0xfc, 0xc9, 0x0a, 0xf5,
  0x06, 0xf5, 0x1e, 0xfa, 0xe4, 0x2c, 0x5b, 0x11, 0xe1, 0xef, 0xe9, 0x4a,
  0x2d, 0xff, 0x25, 0x01, 0x38, 0x1f, 0x10, 0x06, 0x2b, 0x2a, 0xea, 0xef,
  0x0d, 0xea, 0x11, 0x0e, 0x0a, 0xfe, 0xe3, 0x05, 0x0a, 0xfb, 0xf8, 0x00,
  0xfb, 0x0c, 0x08, 0x00, 0x00, 0xed, 0xf2, 0xf9, 0x9b, 0xe3, 0x81, 0x02,
  0xeb, 0x0c, 0xf2, 0xed, 0x08, 0x17, 0xef, 0xd6, 0xf5, 0x14, 0x2c, 0xea,
  0x04, 0x9f, 0xfa, 0xea, 0x2e, 0x0e, 0xfd, 0xdc, 0x08, 0xed, 0x0c, 0xef,
  0xdb, 0xd3, 0xfc, 0xd5, 0xf5, 0xe3, 0xfb, 0x1b, 0x1b, 0x17, 0x0e, 0xfd,
  0x13, 0x16, 0xf4, 0xde, 0xd3, 0xed, 0xe1, 0xe0, 0x18, 0x13, 0x9b, 0xbc,
  0x00, 0x2f, 0xeb, 0xfd, 0xda, 0xff, 0x13, 0xe2, 0xf5, 0x0f, 0xf1, 0xe2,
  0xc1, 0x03, 0x4c, 0xea, 0xf8, 0x07, 0xec, 0xf3, 0x0e, 0xfb, 0x0e, 0x53,
  0xc6, 0xba, 0xc5, 0x1f, 0x21, 0x81, 0xf4, 0xf3, 0x06, 0x0a, 0x20, 0x3d,
  0x14, 0x81, 0xfa, 0xf9, 0x59, 0x02, 0x10, 0x2d, 0x27, 0xe7, 0x34, 0xd0,
  0xd5, 0xde, 0xfd, 0xf8, 0xcb, 0x07, 0xf6, 0xbb, 0xf4, 0xed, 0xff, 0xd3,
  0x24, 0xf5, 0x12, 0xbc, 0xc9, 0xf6, 0x0b, 0xe5, 0x2b, 0xea, 0xf7, 0x16,
  0xd9, 0x02, 0xeb, 0x13, 0x53, 0x7f, 0x17, 0x10, 0x0b, 0xf8, 0xe4, 0x27,
  0x2a, 0xe3, 0x26, 0xd1, 0xff, 0x07, 0x07, 0xcf, 0xe3, 0x34, 0x1a, 0xee,
  0xff, 0x19, 0xdc, 0x03, 0x1f, 0xbb, 0x04, 0xfe, 0xb2, 0xbe, 0xee, 0x00,
  0xe1, 0x0b, 0xef, 0x2e, 0xe4, 0x40, 0xce, 0xf8, 0xd2, 0xf1, 0xe8, 0xd9,
  0xb8, 0x00, 0x15, 0xf0, 0xf8, 0x07, 0xfb, 0xfd, 0xe3, 0x28, 0xf8, 0x04,
  0xf9, 0xf4, 0xdd, 0xf9, 0xfd, 0xfa, 0x09, 0xf0, 0x2f, 0x42, 0x81, 0x0b,
  0x01, 0xfb, 0x09, 0x02, 0x03, 0xf9, 0xe8, 0xf5, 0xf7, 0x0a, 0x06, 0xec,
  0x06, 0xb6, 0xf7, 0x17, 0xfc, 0x0f, 0xf1, 0x0b, 0x05, 0x18, 0xf3, 0xfc,
  0xec, 0x15, 0x15, 0x0f, 0x07, 0x0d, 0xf8, 0xf7, 0xe2, 0x1a, 0xee, 0x10,
  0xd2, 0xda, 0xfc, 0x12, 0xf8, 0xfe, 0xf8, 0x0f, 0x10, 0xf6, 0x4a, 0x07,
  0x0b, 0xec, 0x13, 0x0e, 0xfc, 0xfc, 0x14, 0x07, 0xed, 0xf8, 0xfa, 0xfe,
  0x7f, 0x04, 0x18, 0xee, 0x03, 0xfa, 0xfd, 0x11, 0x17, 0xfd, 0xfc, 0x1b,
  0x0d, 0xe4, 0x05, 0x05, 0xfa, 0xfa, 0xf6, 0xe2, 0x03, 0x05, 0xfa, 0x01,
  0x0c, 0xe7, 0xfb, 0xf8, 0xe2, 0x14, 0xff, 0xe6, 0xef, 0x0b, 0x13, 0x12,
  0x15, 0x12, 0xeb, 0x00, 0xf7, 0x0c, 0xfe, 0x0c, 0x0a, 0xf7, 0xf0, 0xf7,
  0x16, 0xff, 0x00, 0x3c, 0xff, 0x7f, 0x15, 0x12, 0x05, 0x0e, 0xea, 0xfc,
  0xfe, 0xf8, 0x03, 0x0f, 0x42, 0xfe, 0xd7, 0x07, 0x17, 0xd5, 0xf5, 0xa8,
  0xf9, 0x0d, 0x16, 0x02, 0xfd, 0x12, 0x0f, 0x0f, 0xef, 0x1f, 0x00, 0x0e,
  0x24, 0xfc, 0x06, 0xfe, 0x0c, 0x30, 0x2c, 0xff, 0x09, 0x0a, 0x18, 0x11,
  0xf3, 0x05, 0xe3, 0x1b, 0xe1, 0x22, 0x26, 0xf3, 0xe9, 0xee, 0xf3, 0x0e,
  0x1e, 0x03, 0x01, 0xfe, 0x05, 0x05, 0x2b, 0x11, 0x05, 0x30, 0xda, 0x04,
  0xf5, 0xf7, 0x1c, 0x02, 0xfa, 0xf0, 0xfa, 0xf6, 0x81, 0x0a, 0xb9, 0x0c,
  0x0c, 0x10, 0x0e, 0x1e, 0xf6, 0xfb, 0xf1, 0xc4, 0x0c, 0x17, 0x0a, 0xfe,
  0xf0, 0xf9, 0x0b, 0x16, 0x08, 0xf5, 0xfa, 0x1f, 0xff, 0xc7, 0x0a, 0xf2,
  0x0a, 0x03, 0xf5, 0x31, 0x0e, 0xfd, 0xf6, 0x08, 0xf2, 0x12, 0x22, 0xff,
  0x9f, 0xec, 0xfa, 0xe4, 0x02, 0xf2, 0xd2, 0xf5, 0xda, 0xe6, 0xf3, 0xe0,
  0xeb, 0x24, 0xe9, 0x1e, 0xec, 0x02, 0xbf, 0xf1, 0xf6, 0xfd, 0x02, 0x0a,
  0xe9, 0x81, 0xd1, 0xb5, 0x18, 0xf4, 0xf2, 0x17, 0xdf, 0x2d, 0x10, 0x0f,
  0xcd, 0xe1, 0x28, 0x05, 0xe1, 0xfa, 0x02, 0x1c, 0x1f, 0xd3, 0xfc, 0xb8,
  0xf0, 0xc7, 0x1b, 0xfa, 0xe8, 0xd8, 0x2b, 0x0b, 0xf9, 0x02, 0xf4, 0xf5,
  0x16, 0x3f, 0xe4, 0x0c, 0xf2, 0xc8, 0xe9, 0x0e, 0xfb, 0x09, 0x32, 0x0f,
  0x2e, 0x12, 0xd2, 0xba, 0x27, 0x2f, 0x24, 0x1c, 0xf8, 0x2a, 0x4d, 0x17,
  0x2f, 0x34, 0x1d, 0x0b, 0xd3, 0x4c, 0x81, 0xde, 0x0d, 0x14, 0xfe, 0xc5,
  0x26, 0x32, 0x3e, 0xd9, 0x00, 0xbb, 0x50, 0xd8, 0xe0, 0x6d, 0x12, 0xc9,
  0x21, 0x1f, 0xf9, 0x1f, 0x2e, 0xa5, 0x51, 0xf2, 0x34, 0xfe, 0x2f, 0x11,
  0xeb, 0xec, 0x22, 0x32, 0xb8, 0x20, 0xd5, 0x04, 0xcc, 0xde, 0xfa, 0xca,
  0xf7, 0x25, 0xe2, 0x1e, 0x02, 0x17, 0x44, 0x0f, 0xd6, 0xcd, 0x0b, 0xe6,
  0xf2, 0xf2, 0xa0, 0xef, 0xf2, 0x20, 0x02, 0x05, 0xcb, 0x7f, 0x53, 0x0e,
  0xeb, 0xb9, 0x08, 0xb1, 0x14, 0x19, 0xc6, 0xd1, 0x08, 0xde, 0x0b, 0xe3,
  0x27, 0x0e, 0xe3, 0xd7, 0x46, 0xdf, 0xe5, 0x02, 0x1b, 0x20, 0xe8, 0x1a,
  0x28, 0x31, 0x39, 0xb3, 0x8c, 0x27, 0xca, 0xe5, 0xfb, 0x00, 0x1a, 0xef,
  0xeb, 0x2f, 0x0f, 0xde, 0xe9, 0x04, 0x0e, 0x1d, 0x0e, 0x16, 0x9f, 0xd1,
  0xf4, 0xdf, 0xf1, 0xf9, 0xee, 0x33, 0x55, 0x18, 0x0f, 0xf2, 0xef, 0xd8,
  0x4b, 0xc9, 0x00, 0xf8, 0xea, 0xed, 0x07, 0x11, 0x06, 0x16, 0x1b, 0x99,
  0x06, 0xd6, 0xff, 0xd4, 0xfa, 0x22, 0x02, 0xdb, 0xd3, 0xe9, 0xdb, 0x17,
  0x10, 0x0f, 0xd0, 0xff, 0xcd, 0x11, 0x10, 0xc2, 0xf8, 0xe8, 0x10, 0x9e,
  0x61, 0xc1, 0xe3, 0xfe, 0x7f, 0x1b, 0x19, 0xec, 0xe4, 0x29, 0xf2, 0x04,
  0x18, 0xf1, 0xf1, 0xe9, 0x0a, 0x29, 0xeb, 0xfe, 0xea, 0xeb, 0x08, 0xe7,
  0x0c, 0x10, 0xfb, 0x01, 0x26, 0xf4, 0x7f, 0xe4, 0x06, 0x15, 0x0c, 0xf1,
  0xfb, 0x10, 0xd7, 0x34, 0x0a, 0xf7, 0x0c, 0x06, 0xe5, 0xb9, 0x0b, 0x1c,
  0x09, 0x0f, 0xfa, 0xf4, 0xf1, 0xdf, 0x38, 0x08, 0x3a, 0xfc, 0xf3, 0x36,
  0xe6, 0x0c, 0xf7, 0x00, 0xe6, 0x12, 0xf7, 0x0d, 0xeb, 0xfe, 0x0c, 0xf2,
  0x16, 0x00, 0xea, 0x07, 0x27, 0x08, 0x97, 0xe8, 0xef, 0x22, 0xf8, 0x4e,
  0xf8, 0x2c, 0x4b, 0xf2, 0xed, 0x1b, 0x00, 0x2e, 0x81, 0x9e, 0xea, 0xf2,
  0x21, 0xee, 0xf6, 0xe6, 0x27, 0x15, 0x27, 0xd1, 0x3e, 0xe4, 0x0a, 0xd1,
  0x1c, 0x36, 0x08, 0xcd, 0xd8, 0xed, 0xf5, 0x0d, 0x00, 0x4b, 0xd3, 0x1c,
  0x30, 0x20, 0xfd, 0xb0, 0xdf, 0x04, 0x17, 0xf9, 0x19, 0xa7, 0x16, 0xf4,
  0x6b, 0x36, 0x20, 0xf5, 0x15, 0x0a, 0x05, 0x1e, 0xf9, 0x0d, 0x03, 0xb7,
  0x0f, 0xa2, 0x0d, 0x10, 0xea, 0x07, 0x05, 0x0e, 0x14, 0x17, 0x02, 0xf0,
  0xe2, 0xf0, 0xa0, 0x02, 0xf7, 0x08, 0xff, 0x35, 0x26, 0x2b, 0x23, 0x17,
  0x00, 0xb7, 0xf3, 0xf0, 0x01, 0x2c, 0x01, 0x0a, 0x81, 0x0a, 0xfc, 0x15,
  0x0e, 0xed, 0x02, 0x03, 0xe8, 0xbd, 0xf6, 0x45, 0x20, 0x05, 0x0c, 0xdb,
  0xd6, 0x00, 0x33, 0xfa, 0x22, 0x0a, 0x01, 0xf4, 0xe7, 0x16, 0xc4, 0xf3,
  0xf2, 0x12, 0xeb, 0xf6, 0xf3, 0xd4, 0xee, 0x24, 0xf6, 0x02, 0x02, 0xec,
  0x0c, 0xfc, 0x0b, 0xf9, 0x7f, 0x38, 0x0a, 0xfa, 0xf8, 0xfe, 0x00, 0xfa,
  0x06, 0x0f, 0xfa, 0x50, 0x0d, 0x23, 0x02, 0xfd, 0xe7, 0x23, 0x09, 0xed,
  0xe8, 0x12, 0xf7, 0x16, 0xf7, 0x29, 0xda, 0x00, 0xee, 0xf1, 0x14, 0x13,
  0xf1, 0xf9, 0x01, 0xe0, 0x09, 0x04, 0xdc, 0x09, 0x4f, 0x20, 0xfc, 0x09,
  0x15, 0x0e, 0x1b, 0x06, 0x01, 0x07, 0xdd, 0x04, 0xf3, 0x1f, 0x17, 0xe9,
  0xf2, 0xee, 0x0f, 0x0e, 0x25, 0x16, 0xe1, 0xd6, 0x9f, 0xd5, 0x58, 0xd8,
  0x18, 0x0d, 0x14, 0xde, 0x17, 0x26, 0x15, 0xfb, 0x13, 0x11, 0x22, 0xf0,
  0xec, 0x7f, 0x0c, 0xe8, 0x04, 0xf6, 0xde, 0xea, 0x12, 0x38, 0x13, 0x17,
  0xfb, 0xf4, 0x2e, 0xf9, 0xea, 0x0a, 0xe7, 0xfe, 0x3c, 0x18, 0xf9, 0xef,
  0x2d, 0xf5, 0x04, 0xe1, 0x1d, 0xff, 0x05, 0x03, 0xd7, 0x06, 0x7f, 0x63,
  0x4a, 0xf5, 0xe9, 0x51, 0xb6, 0x07, 0xc3, 0x16, 0x1c, 0x2d, 0xce, 0x9c,
  0x72, 0x1e, 0x28, 0x17, 0x49, 0xe1, 0x39, 0xda, 0x41, 0xf1, 0x45, 0x9e,
  0x94, 0x4b, 0x22, 0xf4, 0xd5, 0xf8, 0xf9, 0xc9, 0x85, 0xed, 0x39, 0xd5,
  0xe9, 0xe4, 0x68, 0xcf, 0x6e, 0x97, 0xb8, 0x1b, 0x0a, 0xf7, 0x32, 0xf2,
  0x1f, 0xa9, 0x59, 0x03, 0xcb, 0x44, 0xf6, 0x9b, 0xff, 0xfa, 0x67, 0xcc,
  0xf7, 0x05, 0xe3, 0xed, 0x09, 0x01, 0xb2, 0xed, 0xe3, 0xe2, 0x2a, 0x0f,
  0x29, 0x15, 0x02, 0xf6, 0x5f, 0x50, 0xed, 0xdc, 0xea, 0xf9, 0xf9, 0x23,
  0x43, 0x00, 0xce, 0xef, 0x03, 0xe5, 0xed, 0x0d, 0xe2, 0x7f, 0x0e, 0x0d,
  0xf3, 0x07, 0x03, 0xd4, 0xf4, 0xff, 0x9f, 0xf1, 0x4d, 0xae, 0x16, 0x61,
  0x0c, 0xd7, 0x18, 0xcb, 0xc9, 0xfc, 0xec, 0xd6, 0x92, 0x2a, 0xd1, 0xd7,
  0x13, 0xe1, 0xcd, 0xd6, 0xff, 0xe7, 0xc2, 0x40, 0x0f, 0x5f, 0x19, 0xee,
  0xff, 0xe0, 0xf4, 0xe4, 0x1b, 0x06, 0xf5, 0x27, 0x98, 0xa8, 0x20, 0x14,
  0xe2, 0x22, 0x00, 0x00, 0xfa, 0x0a, 0x29, 0xe3, 0xc9, 0x06, 0x33, 0xf5,
  0xf8, 0x3d, 0x0e, 0x40, 0x30, 0xe1, 0x17, 0xc9, 0xe7, 0xec, 0x06, 0xec,
  0x2b, 0x28, 0xf3, 0x28, 0xeb, 0x14, 0x0a, 0xd3, 0xab, 0x7f, 0x0f, 0x20,
  0x58, 0xc3, 0xeb, 0x1b, 0x1a, 0x24, 0x02, 0x19, 0x04, 0xf4, 0x59, 0xf7,
  0xef, 0x0c, 0xf3, 0xf3, 0x08, 0xf7, 0xed, 0xf4, 0xe9, 0xff, 0xff, 0xed,
  0x28, 0x02, 0x7f, 0x16, 0x10, 0x12, 0x12, 0x0c, 0xfa, 0xe5, 0x1b, 0x02,
  0x0f, 0xff, 0xf3, 0x0e, 0x11, 0x10, 0xff, 0x00, 0xd3, 0xf7, 0x1d, 0xe9,
  0x0d, 0x21, 0xed, 0xf0, 0xe5, 0x19, 0x03, 0xc6, 0x04, 0xe8, 0x25, 0x27,
  0xdb, 0x13, 0xde, 0x0d, 0xe6, 0x18, 0x14, 0x00, 0x20, 0x0c, 0x1e, 0x0e,
  0x07, 0x14, 0x26, 0xdd, 0x0d, 0x21, 0x0f, 0xfb, 0x0a, 0xfd, 0xf6, 0x0b,
  0xf6, 0x0f, 0x09, 0x1e, 0x3d, 0x7f, 0x91, 0x10, 0x01, 0xfa, 0xfb, 0x08,
  0xfe, 0x07, 0x16, 0x32, 0xf9, 0xfe, 0x2c, 0xe5, 0x0b, 0xb0, 0x0b, 0xfc,
  0x03, 0xfe, 0xf3, 0xfe, 0x00, 0x03, 0x16, 0xf3, 0xf0, 0xf7, 0xe7, 0x0b,
  0x11, 0xf1, 0x15, 0xfb, 0x0c, 0x23, 0x03, 0xf0, 0x3c, 0x1c, 0xeb, 0xf4,
  0xe4, 0x01, 0x00, 0x1a, 0xfd, 0x00, 0xe1, 0xfc, 0xf9, 0xb9, 0xe5, 0x08,
  0x04, 0xec, 0x11, 0xfb, 0x00, 0x17, 0xf5, 0xf6, 0xfb, 0xe7, 0xf0, 0xe0,
  0x09, 0xf7, 0xf9, 0xc6, 0x16, 0xd8, 0xff, 0xd2, 0xf2, 0x16, 0xab, 0xe1,
  0x0a, 0x7f, 0xf3, 0x25, 0x17, 0x11, 0xd6, 0xde, 0x09, 0x22, 0xf5, 0xfa,
  0xe4, 0x3e, 0x15, 0x29, 0x01, 0x19, 0xd3, 0xea, 0xe5, 0xee, 0x21, 0xfa,
  0xee, 0x32, 0x09, 0x25, 0x04, 0x13, 0x01, 0x11, 0xf3, 0x07, 0xf8, 0xdb,
  0x0a, 0xaa, 0xe9, 0xf7, 0x03, 0xfb, 0xb7, 0x15, 0xff, 0xf6, 0xee, 0x01,
  0xd4, 0x8c, 0x7f, 0xed, 0xfe, 0x0b, 0xf6, 0xca, 0xfb, 0xe1, 0xf8, 0x0a,
  0xee, 0x15, 0xbf, 0xf5, 0xe7, 0x4d, 0x07, 0xe6, 0xd4, 0xf3, 0x29, 0xea,
  0x11, 0xd6, 0x3e, 0x11, 0x17, 0xde, 0x22, 0x06, 0x10, 0xf5, 0x24, 0x27,
  0x14, 0x29, 0x03, 0xe2, 0x2c, 0x0c, 0xeb, 0x0f, 0xce, 0xf3, 0xe0, 0xfd,
  0x04, 0xf5, 0x32, 0x11, 0xea, 0xbf, 0x0e, 0x0c, 0xe5, 0xfc, 0xf3, 0xec,
  0x11, 0xf2, 0x11, 0x00, 0xc3, 0xdf, 0x7f, 0x16, 0xf4, 0xfe, 0x0e, 0xf9,
  0x1b, 0x18, 0x1d, 0xd7, 0x13, 0x11, 0x03, 0x13, 0x13, 0x13, 0xf2, 0x1c,
  0xf3, 0x0e, 0xf9, 0x0b, 0x00, 0xf6, 0xfd, 0xee, 0x2f, 0xed, 0x08, 0xe3,
  0x17, 0x01, 0x0f, 0xfe, 0xcc, 0x11, 0xd9, 0x04, 0xe1, 0x1e, 0x08, 0x06,
  0xd9, 0x03, 0x10, 0xfd, 0xfb, 0xde, 0x0c, 0x64, 0xfe, 0xa4, 0xfc, 0xe7,
  0xd8, 0x05, 0xbf, 0x1a, 0x09, 0x27, 0xdb, 0xc7, 0x5b, 0x21, 0x83, 0x1f,
  0xe4, 0xe5, 0x21, 0xf8, 0xe7, 0x27, 0xe9, 0xfe, 0xf8, 0xec, 0xda, 0xf5,
  0x22, 0xb7, 0xf1, 0xd4, 0xc2, 0x2d, 0x22, 0x4a, 0x00, 0x44, 0xdf, 0x04,
  0x2e, 0x50, 0xc2, 0xeb, 0xda, 0x19, 0xea, 0x04, 0x27, 0xdc, 0xc5, 0x09,
  0x7f, 0xcf, 0xe6, 0x01, 0x3c, 0x09, 0x17, 0x11, 0xf1, 0xf6, 0x1d, 0xd8,
  0x12, 0xe7, 0x1b, 0xf6, 0xec, 0xef, 0xf1, 0x15, 0xfa, 0x06, 0xf8, 0xdd,
  0x81, 0x09, 0x51, 0x01, 0xe3, 0x18, 0xff, 0x1e, 0xe9, 0x01, 0x20, 0xd9,
  0xdf, 0xe6, 0x14, 0x0e, 0x15, 0x1c, 0xef, 0xeb, 0xf5, 0x0c, 0x0e, 0x0f,
  0x12, 0x06, 0x09, 0xff, 0x14, 0xdf, 0xea, 0x27, 0xe2, 0x05, 0xfe, 0x23,
  0xde, 0xd8, 0xff, 0xfc, 0x41, 0x0e, 0xe1, 0x0d, 0xdb, 0xf3, 0xee, 0xff,
  0x0a, 0x08, 0x24, 0xab, 0x0f, 0xfb, 0x11, 0xf4, 0x16, 0x14, 0xed, 0xfa,
  0xec, 0x0c, 0x0d, 0x12, 0x37, 0x56, 0x7f, 0x14, 0x0d, 0xee, 0x0e, 0xe5,
  0x03, 0xf0, 0xf9, 0xf5, 0xfa, 0xe3, 0xff, 0x0b, 0xf2, 0x9c, 0x0d, 0xe3,
  0xe4, 0x10, 0xfc, 0x1a, 0x01, 0x0c, 0x24, 0x12, 0xe5, 0xf8, 0xe9, 0xdd,
  0xf7, 0x02, 0x07, 0x08, 0xf4, 0xec, 0xf4, 0x08, 0x32, 0xe7, 0x16, 0xf8,
  0xf1, 0x02, 0x07, 0xee, 0x14, 0xf8, 0xfe, 0x34, 0x00, 0xee, 0xf0, 0xfa,
  0xdf, 0xf6, 0xde, 0xf1, 0x07, 0xf3, 0x03, 0x1b, 0xbd, 0x0e, 0x1d, 0x02,
  0xfa, 0xe4, 0xff, 0x81, 0x00, 0xfa, 0xfb, 0xdd, 0xe3, 0xdf, 0xd4, 0x0f,
  0x0c, 0xc1, 0x08, 0xec, 0x24, 0x12, 0x0b, 0x22, 0x00, 0xf2, 0x07, 0x01,
  0x09, 0x1c, 0x18, 0xca, 0x0c, 0x14, 0x05, 0xf5, 0x1a, 0xd0, 0x1d, 0x08,
  0x01, 0x03, 0x16, 0xef, 0xf5, 0xfc, 0x05, 0x00, 0xa6, 0xfe, 0xff, 0xff,
  0x04, 0x00, 0x00, 0x00, 0x00, 0x01, 0x00, 0x00, 0x40, 0x16, 0x00, 0x00,
  0x74, 0xe4, 0xff, 0xff, 0x92, 0x02, 0x00, 0x00, 0x94, 0x0b, 0x00, 0x00,
  0xb4, 0x09, 0x00, 0x00, 0x16, 0x01, 0x00, 0x00, 0xa8, 0xd7, 0xff, 0xff,
  0xba, 0xc9, 0xff, 0xff, 0xa1, 0x04, 0x00, 0x00, 0x2a, 0xff, 0xff, 0xff,
  0xb4, 0xea, 0xff, 0xff, 0xe7, 0x11, 0x00, 0x00, 0x9c, 0xf0, 0xff, 0xff,
  0xb3, 0xed, 0xff, 0xff, 0xc7, 0xe9, 0xff, 0xff, 0xcd, 0x0d, 0x00, 0x00,
  0x36, 0x3e, 0x00, 0x00, 0x7e, 0xf5, 0xff, 0xff, 0x6e, 0x49, 0x00, 0x00,
  0xee, 0x01, 0x00, 0x00, 0x97, 0x13, 0x00, 0x00, 0x1e, 0xfc, 0xff, 0xff,
  0x59, 0x0b, 0x00, 0x00, 0xf6, 0x07, 0x00, 0x00, 0xf0, 0x23, 0x00, 0x00,
  0x05, 0xfb, 0xff, 0xff, 0x7a, 0x00, 0x00, 0x00, 0xbb, 0xe7, 0xff, 0xff,
  0x2b, 0xfe, 0xff, 0xff, 0xae, 0xf1, 0xff, 0xff, 0x4c, 0x20, 0x00, 0x00,
  0xf9, 0x14, 0x00, 0x00, 0xfb, 0x17, 0x00, 0x00, 0xb5, 0xf9, 0xff, 0xff,
  0x5b, 0x09, 0x00, 0x00, 0x4d, 0xa7, 0xff, 0xff, 0xe3, 0x20, 0x00, 0x00,
  0x70, 0x24, 0x00, 0x00, 0x5c, 0x2f, 0x00, 0x00, 0xf4, 0x06, 0x00, 0x00,
  0xff, 0x00, 0x00, 0x00, 0x60, 0xf0, 0xff, 0xff, 0x85, 0xfd, 0xff, 0xff,
  0x6c, 0x27, 0x00, 0x00, 0xba, 0xc1, 0xff, 0xff, 0xe8, 0x5a, 0x00, 0x00,
  0x9a, 0x23, 0x00, 0x00, 0x35, 0xfc, 0xff, 0xff, 0xaa, 0xea, 0xff, 0xff,
  0xeb, 0xf5, 0xff, 0xff, 0x29, 0xfa, 0xff, 0xff, 0xbd, 0xfa, 0xff, 0xff,
  0xd7, 0xf9, 0xff, 0xff, 0x20, 0x33, 0x00, 0x00, 0x48, 0xd4, 0xff, 0xff,
  0x9f, 0xec, 0xff, 0xff, 0x18, 0xe5, 0xff, 0xff, 0xa5, 0x18, 0x00, 0x00,
  0xb0, 0x15, 0x00, 0x00, 0x7c, 0xfc, 0xff, 0xff, 0x83, 0x19, 0x00, 0x00,
  0x75, 0x09, 0x00, 0x00, 0xeb, 0x07, 0x00, 0x00, 0xd9, 0x26, 0x00, 0x00,
  0xb2, 0xff, 0xff, 0xff, 0x04, 0x00, 0x00, 0x00, 0x40, 0x00, 0x00, 0x00,
  0xcc, 0xe4, 0x3a, 0xf5, 0xca, 0xfa, 0xfd, 0x01, 0xbf, 0xfe, 0x51, 0x03,
  0xf8, 0x40, 0x0a, 0xa8, 0xbd, 0x02, 0xa6, 0xf8, 0xcd, 0x34, 0x00, 0xa5,
  0x0a, 0xeb, 0x4b, 0x5e, 0x1d, 0x1e, 0xce, 0xf1, 0x01, 0xf9, 0x06, 0x0a,
  0x29, 0x4d, 0x04, 0x1d, 0xe8, 0xd4, 0x46, 0x1e, 0xfc, 0x81, 0x17, 0x16,
  0xe7, 0x53, 0xf5, 0xfe, 0x2c, 0x3f, 0x13, 0x02, 0x3a, 0xbd, 0x01, 0x01,
  0xec, 0x00, 0xe1, 0xbb, 0x00, 0x00, 0x06, 0x00, 0x08, 0x00, 0x04, 0x00,
  0x06, 0x00, 0x00, 0x00, 0x04, 0x00, 0x00, 0x00, 0x04, 0x00, 0x00, 0x00,
  0x36, 0x41, 0x00, 0x00, 0x84, 0xff, 0xff, 0xff, 0x88, 0xff, 0xff, 0xff,
  0x0f, 0x00, 0x00, 0x00, 0x4d, 0x4c, 0x49, 0x52, 0x20, 0x43, 0x6f, 0x6e,
  0x76, 0x65, 0x72, 0x74, 0x65, 0x64, 0x2e, 0x00, 0x01, 0x00, 0x00, 0x00,
  0x14, 0x00, 0x00, 0x00, 0x00, 0x00, 0x0e, 0x00, 0x18, 0x00, 0x14, 0x00,
  0x10, 0x00, 0x0c, 0x00, 0x08, 0x00, 0x04, 0x00, 0x0e, 0x00, 0x00, 0x00,
  0x14, 0x00, 0x00, 0x00, 0x1c, 0x00, 0x00, 0x00, 0xdc, 0x00, 0x00, 0x00,
  0xe0, 0x00, 0x00, 0x00, 0xe4, 0x00, 0x00, 0x00, 0x04, 0x00, 0x00, 0x00,
  0x6d, 0x61, 0x69, 0x6e, 0x00, 0x00, 0x00, 0x00, 0x03, 0x00, 0x00, 0x00,
  0x84, 0x00, 0x00, 0x00, 0x3c, 0x00, 0x00, 0x00, 0x04, 0x00, 0x00, 0x00,
  0x96, 0xff, 0xff, 0xff, 0x14, 0x00, 0x00, 0x00, 0x00, 0x00, 0x00, 0x08,
  0x10, 0x00, 0x00, 0x00, 0x14, 0x00, 0x00, 0x00, 0x04, 0x00, 0x04, 0x00,
  0x04, 0x00, 0x00, 0x00, 0x01, 0x00, 0x00, 0x00, 0x09, 0x00, 0x00, 0x00,
  0x03, 0x00, 0x00, 0x00, 0x08, 0x00, 0x00, 0x00, 0x02, 0x00, 0x00, 0x00,
  0x01, 0x00, 0x00, 0x00, 0xca, 0xff, 0xff, 0xff, 0x10, 0x00, 0x00, 0x00,
  0x00, 0x00, 0x00, 0x08, 0x10, 0x00, 0x00, 0x00, 0x14, 0x00, 0x00, 0x00,
  0xba, 0xff, 0xff, 0xff, 0x00, 0x00, 0x00, 0x01, 0x01, 0x00, 0x00, 0x00,
  0x08, 0x00, 0x00, 0x00, 0x03, 0x00, 0x00, 0x00, 0x07, 0x00, 0x00, 0x00,
  0x04, 0x00, 0x00, 0x00, 0x03, 0x00, 0x00, 0x00, 0x00, 0x00, 0x0e, 0x00,
  0x16, 0x00, 0x00, 0x00, 0x10, 0x00, 0x0c, 0x00, 0x0b, 0x00, 0x04, 0x00,
  0x0e, 0x00, 0x00, 0x00, 0x18, 0x00, 0x00, 0x00, 0x00, 0x00, 0x00, 0x08,
  0x18, 0x00, 0x00, 0x00, 0x1c, 0x00, 0x00, 0x00, 0x00, 0x00, 0x06, 0x00,
  0x08, 0x00, 0x07, 0x00, 0x06, 0x00, 0x00, 0x00, 0x00, 0x00, 0x00, 0x01,
  0x01, 0x00, 0x00, 0x00, 0x07, 0x00, 0x00, 0x00, 0x03, 0x00, 0x00, 0x00,
  0x00, 0x00, 0x00, 0x00, 0x06, 0x00, 0x00, 0x00, 0x05, 0x00, 0x00, 0x00,
  0x01, 0x00, 0x00, 0x00, 0x09, 0x00, 0x00, 0x00, 0x01, 0x00, 0x00, 0x00,
  0x00, 0x00, 0x00, 0x00, 0x0a, 0x00, 0x00, 0x00, 0xac, 0x10, 0x00, 0x00,
  0x34, 0x10, 0x00, 0x00, 0xb8, 0x0f, 0x00, 0x00, 0x64, 0x0c, 0x00, 0x00,
  0x08, 0x09, 0x00, 0x00, 0xb4, 0x05, 0x00, 0x00, 0x58, 0x02, 0x00, 0x00,
  0xa4, 0x01, 0x00, 0x00, 0x80, 0x00, 0x00, 0x00, 0x04, 0x00, 0x00, 0x00,
  0x92, 0xef, 0xff, 0xff, 0x00, 0x00, 0x00, 0x01, 0x18, 0x00, 0x00, 0x00,
  0x20, 0x00, 0x00, 0x00, 0x3c, 0x00, 0x00, 0x00, 0x0a, 0x00, 0x00, 0x00,
  0x00, 0x00, 0x00, 0x09, 0x50, 0x00, 0x00, 0x00, 0x02, 0x00, 0x00, 0x00,
  0xff, 0xff, 0xff, 0xff, 0x01, 0x00, 0x00, 0x00, 0x7c, 0xef, 0xff, 0xff,
  0x08, 0x00, 0x00, 0x00, 0x10, 0x00, 0x00, 0x00, 0x01, 0x00, 0x00, 0x00,
  0x00, 0x00, 0x00, 0x00, 0x00, 0x00, 0x00, 0x00, 0x01, 0x00, 0x00, 0x00,
  0xe9, 0xf4, 0xff, 0x3b, 0x1b, 0x00, 0x00, 0x00, 0x53, 0x74, 0x61, 0x74,
  0x65, 0x66, 0x75, 0x6c, 0x50, 0x61, 0x72, 0x74, 0x69, 0x74, 0x69, 0x6f,
  0x6e, 0x65, 0x64, 0x43, 0x61, 0x6c, 0x6c, 0x5f, 0x31, 0x3a, 0x30, 0x00,
  0x02, 0x00, 0x00, 0x00, 0x01, 0x00, 0x00, 0x00, 0x01, 0x00, 0x00, 0x00,
  0x0a, 0xf0, 0xff, 0xff, 0x00, 0x00, 0x00, 0x01, 0x18, 0x00, 0x00, 0x00,
  0x20, 0x00, 0x00, 0x00, 0x40, 0x00, 0x00, 0x00, 0x09, 0x00, 0x00, 0x00,
  0x00, 0x00, 0x00, 0x09, 0xf8, 0x00, 0x00, 0x00, 0x02, 0x00, 0x00, 0x00,
  0xff, 0xff, 0xff, 0xff, 0x40, 0x00, 0x00, 0x00, 0xf4, 0xef, 0xff, 0xff,
  0x08, 0x00, 0x00, 0x00, 0x14, 0x00, 0x00, 0x00, 0x01, 0x00, 0x00, 0x00,
  0x80, 0xff, 0xff, 0xff, 0xff, 0xff, 0xff, 0xff, 0x00, 0x00, 0x00, 0x00,
  0x01, 0x00, 0x00, 0x00, 0xbe, 0xec, 0xbb, 0x3c, 0xbe, 0x00, 0x00, 0x00,
  0x73, 0x65, 0x71, 0x75, 0x65, 0x6e, 0x74, 0x69, 0x61, 0x6c, 0x5f, 0x31,
  0x2f, 0x62, 0x61, 0x74, 0x63, 0x68, 0x5f, 0x6e, 0x6f, 0x72, 0x6d, 0x61,
  0x6c, 0x69, 0x7a, 0x61, 0x74, 0x69, 0x6f, 0x6e, 0x5f, 0x31, 0x2f, 0x62,
  0x61, 0x74, 0x63, 0x68, 0x6e, 0x6f, 0x72, 0x6d, 0x2f, 0x6d, 0x75, 0x6c,
  0x5f, 0x31, 0x3b, 0x73, 0x65, 0x71, 0x75, 0x65, 0x6e, 0x74, 0x69, 0x61,
  0x6c, 0x5f, 0x31, 0x2f, 0x62, 0x61, 0x74, 0x63, 0x68, 0x5f, 0x6e, 0x6f,
  0x72, 0x6d, 0x61, 0x6c, 0x69, 0x7a, 0x61, 0x74, 0x69, 0x6f, 0x6e, 0x5f,
  0x31, 0x2f, 0x62, 0x61, 0x74, 0x63, 0x68, 0x6e, 0x6f, 0x72, 0x6d, 0x2f,
  0x61, 0x64, 0x64, 0x5f, 0x31, 0x3b, 0x73, 0x65, 0x71, 0x75, 0x65, 0x6e,
  0x74, 0x69, 0x61, 0x6c, 0x5f, 0x31, 0x2f, 0x64, 0x65, 0x6e, 0x73, 0x65,
  0x5f, 0x31, 0x5f, 0x32, 0x2f, 0x4d, 0x61, 0x74, 0x4d, 0x75, 0x6c, 0x3b,
  0x73, 0x65, 0x71, 0x75, 0x65, 0x6e, 0x74, 0x69, 0x61, 0x6c, 0x5f, 0x31,
  0x2f, 0x64, 0x65, 0x6e, 0x73, 0x65, 0x5f, 0x31, 0x5f, 0x32, 0x2f, 0x52,
  0x65, 0x6c, 0x75, 0x3b, 0x73, 0x65, 0x71, 0x75, 0x65, 0x6e, 0x74, 0x69,
  0x61, 0x6c, 0x5f, 0x31, 0x2f, 0x64, 0x65, 0x6e, 0x73, 0x65, 0x5f, 0x31,
  0x5f, 0x32, 0x2f, 0x42, 0x69, 0x61, 0x73, 0x41, 0x64, 0x64, 0x00, 0x00,
  0x02, 0x00, 0x00, 0x00, 0x01, 0x00, 0x00, 0x00, 0x40, 0x00, 0x00, 0x00,
  0x2a, 0xf1, 0xff, 0xff, 0x00, 0x00, 0x00, 0x01, 0x18, 0x00, 0x00, 0x00,
  0x20, 0x00, 0x00, 0x00, 0x3c, 0x00, 0x00, 0x00, 0x08, 0x00, 0x00, 0x00,
  0x00, 0x00, 0x00, 0x09, 0x88, 0x00, 0x00, 0x00, 0x02, 0x00, 0x00, 0x00,
  0xff, 0xff, 0xff, 0xff, 0x40, 0x00, 0x00, 0x00, 0x14, 0xf1, 0xff, 0xff,
  0x08, 0x00, 0x00, 0x00, 0x10, 0x00, 0x00, 0x00, 0x01, 0x00, 0x00, 0x00,
  0x80, 0xff, 0xff, 0xff, 0xff, 0xff, 0xff, 0xff, 0x01, 0x00, 0x00, 0x00,
  0x06, 0x01, 0x97, 0x3b, 0x52, 0x00, 0x00, 0x00, 0x73, 0x65, 0x71, 0x75,
  0x65, 0x6e, 0x74, 0x69, 0x61, 0x6c, 0x5f, 0x31, 0x2f, 0x64, 0x65, 0x6e,
  0x73, 0x65, 0x5f, 0x31, 0x2f, 0x4d, 0x61, 0x74, 0x4d, 0x75, 0x6c, 0x3b,
  0x73, 0x65, 0x71, 0x75, 0x65, 0x6e, 0x74, 0x69, 0x61, 0x6c, 0x5f, 0x31,
  0x2f, 0x64, 0x65, 0x6e, 0x73, 0x65, 0x5f, 0x31, 0x2f, 0x52, 0x65, 0x6c,
  0x75, 0x3b, 0x73, 0x65, 0x71, 0x75, 0x65, 0x6e, 0x74, 0x69, 0x61, 0x6c,
  0x5f, 0x31, 0x2f, 0x64, 0x65, 0x6e, 0x73, 0x65, 0x5f, 0x31, 0x2f, 0x42,
  0x69, 0x61, 0x73, 0x41, 0x64, 0x64, 0x00, 0x00, 0x02, 0x00, 0x00, 0x00,
  0x01, 0x00, 0x00, 0x00, 0x40, 0x00, 0x00, 0x00, 0x4e, 0xf2, 0xff, 0xff,
  0x00, 0x00, 0x00, 0x01, 0x14, 0x00, 0x00, 0x00, 0x28, 0x03, 0x00, 0x00,
  0x07, 0x00, 0x00, 0x00, 0x00, 0x00, 0x00, 0x09, 0x34, 0x03, 0x00, 0x00,
  0xb4, 0xf1, 0xff, 0xff, 0x08, 0x00, 0x00, 0x00, 0x0c, 0x02, 0x00, 0x00,
  0x40, 0x00, 0x00, 0x00, 0x00, 0x00, 0x00, 0x00, 0x00, 0x00, 0x00, 0x00,
  0x00, 0x00, 0x00, 0x00, 0x00, 0x00, 0x00, 0x00, 0x00, 0x00, 0x00, 0x00,
  0x00, 0x00, 0x00, 0x00, 0x00, 0x00, 0x00, 0x00, 0x00, 0x00, 0x00, 0x00,
  0x00, 0x00, 0x00, 0x00, 0x00, 0x00, 0x00, 0x00, 0x00, 0x00, 0x00, 0x00,
  0x00, 0x00, 0x00, 0x00, 0x00, 0x00, 0x00, 0x00, 0x00, 0x00, 0x00, 0x00,
  0x00, 0x00, 0x00, 0x00, 0x00, 0x00, 0x00, 0x00, 0x00, 0x00, 0x00, 0x00,
  0x00, 0x00, 0x00, 0x00, 0x00, 0x00, 0x00, 0x00, 0x00, 0x00, 0x00, 0x00,
  0x00, 0x00, 0x00, 0x00, 0x00, 0x00, 0x00, 0x00, 0x00, 0x00, 0x00, 0x00,
  0x00, 0x00, 0x00, 0x00, 0x00, 0x00, 0x00, 0x00, 0x00, 0x00, 0x00, 0x00,
  0x00, 0x00, 0x00, 0x00, 0x00, 0x00, 0x00, 0x00, 0x00, 0x00, 0x00, 0x00,
  0x00, 0x00, 0x00, 0x00, 0x00, 0x00, 0x00, 0x00, 0x00, 0x00, 0x00, 0x00,
  0x00, 0x00, 0x00, 0x00, 0x00, 0x00, 0x00, 0x00, 0x00, 0x00, 0x00, 0x00,
  0x00, 0x00, 0x00, 0x00, 0x00, 0x00, 0x00, 0x00, 0x00, 0x00, 0x00, 0x00,
  0x00, 0x00, 0x00, 0x00, 0x00, 0x00, 0x00, 0x00, 0x00, 0x00, 0x00, 0x00,
  0x00, 0x00, 0x00, 0x00, 0x00, 0x00, 0x00, 0x00, 0x00, 0x00, 0x00, 0x00,
  0x00, 0x00, 0x00, 0x00, 0x00, 0x00, 0x00, 0x00, 0x00, 0x00, 0x00, 0x00,
  0x00, 0x00, 0x00, 0x00, 0x00, 0x00, 0x00, 0x00, 0x00, 0x00, 0x00, 0x00,
  0x00, 0x00, 0x00, 0x00, 0x00, 0x00, 0x00, 0x00, 0x00, 0x00, 0x00, 0x00,
  0x00, 0x00, 0x00, 0x00, 0x00, 0x00, 0x00, 0x00, 0x00, 0x00, 0x00, 0x00,
  0x00, 0x00, 0x00, 0x00, 0x00, 0x00, 0x00, 0x00, 0x00, 0x00, 0x00, 0x00,
  0x00, 0x00, 0x00, 0x00, 0x00, 0x00, 0x00, 0x00, 0x00, 0x00, 0x00, 0x00,
  0x00, 0x00, 0x00, 0x00, 0x00, 0x00, 0x00, 0x00, 0x00, 0x00, 0x00, 0x00,
  0x00, 0x00, 0x00, 0x00, 0x00, 0x00, 0x00, 0x00, 0x00, 0x00, 0x00, 0x00,
  0x00, 0x00, 0x00, 0x00, 0x00, 0x00, 0x00, 0x00, 0x00, 0x00, 0x00, 0x00,
  0x00, 0x00, 0x00, 0x00, 0x00, 0x00, 0x00, 0x00, 0x00, 0x00, 0x00, 0x00,
  0x00, 0x00, 0x00, 0x00, 0x00, 0x00, 0x00, 0x00, 0x00, 0x00, 0x00, 0x00,
  0x00, 0x00, 0x00, 0x00, 0x00, 0x00, 0x00, 0x00, 0x00, 0x00, 0x00, 0x00,
  0x00, 0x00, 0x00, 0x00, 0x00, 0x00, 0x00, 0x00, 0x00, 0x00, 0x00, 0x00,
  0x00, 0x00, 0x00, 0x00, 0x00, 0x00, 0x00, 0x00, 0x00, 0x00, 0x00, 0x00,
  0x00, 0x00, 0x00, 0x00, 0x00, 0x00, 0x00, 0x00, 0x00, 0x00, 0x00, 0x00,
  0x00, 0x00, 0x00, 0x00, 0x00, 0x00, 0x00, 0x00, 0x00, 0x00, 0x00, 0x00,
  0x00, 0x00, 0x00, 0x00, 0x00, 0x00, 0x00, 0x00, 0x00, 0x00, 0x00, 0x00,
  0x00, 0x00, 0x00, 0x00, 0x00, 0x00, 0x00, 0x00, 0x00, 0x00, 0x00, 0x00,
  0x00, 0x00, 0x00, 0x00, 0x00, 0x00, 0x00, 0x00, 0x00, 0x00, 0x00, 0x00,
  0x00, 0x00, 0x00, 0x00, 0x00, 0x00, 0x00, 0x00, 0x00, 0x00, 0x00, 0x00,
  0x00, 0x00, 0x00, 0x00, 0x00, 0x00, 0x00, 0x00, 0x00, 0x00, 0x00, 0x00,
  0x00, 0x00, 0x00, 0x00, 0x00, 0x00, 0x00, 0x00, 0x00, 0x00, 0x00, 0x00,
  0x00, 0x00, 0x00, 0x00, 0x00, 0x00, 0x00, 0x00, 0x00, 0x00, 0x00, 0x00,
  0x00, 0x00, 0x00, 0x00, 0x00, 0x00, 0x00, 0x00, 0x00, 0x00, 0x00, 0x00,
  0x00, 0x00, 0x00, 0x00, 0x00, 0x00, 0x00, 0x00, 0x00, 0x00, 0x00, 0x00,
  0x00, 0x00, 0x00, 0x00, 0x00, 0x00, 0x00, 0x00, 0x00, 0x00, 0x00, 0x00,
  0x00, 0x00, 0x00, 0x00, 0x00, 0x00, 0x00, 0x00, 0x00, 0x00, 0x00, 0x00,
  0x00, 0x00, 0x00, 0x00, 0x00, 0x00, 0x00, 0x00, 0x00, 0x00, 0x00, 0x00,
  0x00, 0x00, 0x00, 0x00, 0x40, 0x00, 0x00, 0x00, 0x91, 0x00, 0x39, 0x3b,
  0x9c, 0x80, 0x28, 0x3b, 0x6b, 0x49, 0x12, 0x3b, 0x89, 0xd8, 0x0a, 0x3b,
  0xf8, 0x7c, 0x13, 0x3b, 0x66, 0x1e, 0x3d, 0x3b, 0xc3, 0x96, 0x24, 0x3b,
  0x71, 0x9d, 0x0c, 0x3b, 0xd9, 0x01, 0x26, 0x3b, 0x61, 0xb0, 0x31, 0x3b,
  0x4f, 0x4b, 0x4c, 0x3b, 0x02, 0x16, 0x2c, 0x3b, 0x3a, 0x2f, 0x2c, 0x3b,
  0x9b, 0x35, 0x03, 0x3b, 0x73, 0x1d, 0x08, 0x3b, 0x47, 0x59, 0x41, 0x3b,
  0x09, 0x35, 0x0d, 0x3b, 0x4b, 0xcf, 0x23, 0x3b, 0x1e, 0x7c, 0xae, 0x3a,
  0x78, 0xa5, 0xed, 0x3a, 0x38, 0x72, 0x40, 0x3b, 0x8e, 0x4f, 0x61, 0x3b,
  0x8a, 0x10, 0x23, 0x3b, 0x5e, 0x76, 0x78, 0x3b, 0x63, 0xa3, 0xcc, 0x3a,
  0xc7, 0x7f, 0x05, 0x3b, 0x3e, 0x5c, 0x1a, 0x3b, 0xa8, 0x25, 0x23, 0x3b,
  0xda, 0xeb, 0x39, 0x3b, 0x7d, 0x97, 0x28, 0x3b, 0xcd, 0x64, 0x1f, 0x3b,
  0x54, 0xb7, 0x45, 0x3b, 0x64, 0x91, 0xd4, 0x3a, 0x1c, 0x3d, 0xe7, 0x3a,
  0x19, 0x57, 0x24, 0x3b, 0xbe, 0xfd, 0x17, 0x3b, 0x80, 0x40, 0x55, 0x3b,
  0xc3, 0x2d, 0x11, 0x3b, 0xf7, 0x0d, 0x1f, 0x3b, 0x2b, 0x98, 0x06, 0x3b,
  0x20, 0xc1, 0x14, 0x3b, 0x18, 0xc1, 0x3a, 0x3b, 0xee, 0x0f, 0x63, 0x3b,
  0x56, 0xf5, 0x19, 0x3b, 0x52, 0xec, 0x28, 0x3b, 0x83, 0x9d, 0x7e, 0x3b,
  0xbe, 0xe4, 0x0e, 0x3b, 0x32, 0x7f, 0x24, 0x3b, 0xd6, 0xcf, 0x43, 0x3b,
  0x64, 0xdf, 0x7e, 0x3b, 0xcf, 0x96, 0x72, 0x3b, 0x1b, 0x60, 0x2b, 0x3b,
  0x07, 0xc6, 0x1b, 0x3b, 0xa9, 0xb5, 0x24, 0x3b, 0x2e, 0x3a, 0xdb, 0x3a,
  0xec, 0x9c, 0x48, 0x3b, 0xc5, 0x38, 0x39, 0x3b, 0xdb, 0x4c, 0x1a, 0x3b,
  0x49, 0x5d, 0x03, 0x3b, 0x55, 0xa0, 0x33, 0x3b, 0x9b, 0x66, 0x28, 0x3b,
  0xb7, 0xe6, 0x1a, 0x3b, 0xed, 0x3d, 0x27, 0x3b, 0x2a, 0x52, 0x2e, 0x3b,
  0x12, 0x00, 0x00, 0x00, 0x74, 0x66, 0x6c, 0x2e, 0x70, 0x73, 0x65, 0x75,
  0x64, 0x6f, 0x5f, 0x71, 0x63, 0x6f, 0x6e, 0x73, 0x74, 0x35, 0x00, 0x00,
  0x02, 0x00, 0x00, 0x00, 0x40, 0x00, 0x00, 0x00, 0x07, 0x00, 0x00, 0x00,
  0xa6, 0xf5, 0xff, 0xff, 0x00, 0x00, 0x00, 0x01, 0x14, 0x00, 0x00, 0x00,
  0x24, 0x03, 0x00, 0x00, 0x06, 0x00, 0x00, 0x00, 0x00, 0x00, 0x00, 0x02,
  0x30, 0x03, 0x00, 0x00, 0x0c, 0xf5, 0xff, 0xff, 0x08, 0x00, 0x00, 0x00,
  0x08, 0x02, 0x00, 0x00, 0x40, 0x00, 0x00, 0x00, 0x00, 0x00, 0x00, 0x00,
  0x00, 0x00, 0x00, 0x00, 0x00, 0x00, 0x00, 0x00, 0x00, 0x00, 0x00, 0x00,
  0x00, 0x00, 0x00, 0x00, 0x00, 0x00, 0x00, 0x00, 0x00, 0x00, 0x00, 0x00,
  0x00, 0x00, 0x00, 0x00, 0x00, 0x00, 0x00, 0x00, 0x00, 0x00, 0x00, 0x00,
  0x00, 0x00, 0x00, 0x00, 0x00, 0x00, 0x00, 0x00, 0x00, 0x00, 0x00, 0x00,
  0x00, 0x00, 0x00, 0x00, 0x00, 0x00, 0x00, 0x00, 0x00, 0x00, 0x00, 0x00,
  0x00, 0x00, 0x00, 0x00, 0x00, 0x00, 0x00, 0x00, 0x00, 0x00, 0x00, 0x00,
  0x00, 0x00, 0x00, 0x00, 0x00, 0x00, 0x00, 0x00, 0x00, 0x00, 0x00, 0x00,
  0x00, 0x00, 0x00, 0x00, 0x00, 0x00, 0x00, 0x00, 0x00, 0x00, 0x00, 0x00,
  0x00, 0x00, 0x00, 0x00, 0x00, 0x00, 0x00, 0x00, 0x00, 0x00, 0x00, 0x00,
  0x00, 0x00, 0x00, 0x00, 0x00, 0x00, 0x00, 0x00, 0x00, 0x00, 0x00, 0x00,
  0x00, 0x00, 0x00, 0x00, 0x00, 0x00, 0x00, 0x00, 0x00, 0x00, 0x00, 0x00,
  0x00, 0x00, 0x00, 0x00, 0x00, 0x00, 0x00, 0x00, 0x00, 0x00, 0x00, 0x00,
  0x00, 0x00, 0x00, 0x00, 0x00, 0x00, 0x00, 0x00, 0x00, 0x00, 0x00, 0x00,
  0x00, 0x00, 0x00, 0x00, 0x00, 0x00, 0x00, 0x00, 0x00, 0x00, 0x00, 0x00,
  0x00, 0x00, 0x00, 0x00, 0x00, 0x00, 0x00, 0x00, 0x00, 0x00, 0x00, 0x00,
  0x00, 0x00, 0x00, 0x00, 0x00, 0x00, 0x00, 0x00, 0x00, 0x00, 0x00, 0x00,
  0x00, 0x00, 0x00, 0x00, 0x00, 0x00, 0x00, 0x00, 0x00, 0x00, 0x00, 0x00,
  0x00, 0x00, 0x00, 0x00, 0x00, 0x00, 0x00, 0x00, 0x00, 0x00, 0x00, 0x00,
  0x00, 0x00, 0x00, 0x00, 0x00, 0x00, 0x00, 0x00, 0x00, 0x00, 0x00, 0x00,
  0x00, 0x00, 0x00, 0x00, 0x00, 0x00, 0x00, 0x00, 0x00, 0x00, 0x00, 0x00,
  0x00, 0x00, 0x00, 0x00, 0x00, 0x00, 0x00, 0x00, 0x00, 0x00, 0x00, 0x00,
  0x00, 0x00, 0x00, 0x00, 0x00, 0x00, 0x00, 0x00, 0x00, 0x00, 0x00, 0x00,
  0x00, 0x00, 0x00, 0x00, 0x00, 0x00, 0x00, 0x00, 0x00, 0x00, 0x00, 0x00,
  0x00, 0x00, 0x00, 0x00, 0x00, 0x00, 0x00, 0x00, 0x00, 0x00, 0x00, 0x00,
  0x00, 0x00, 0x00, 0x00, 0x00, 0x00, 0x00, 0x00, 0x00, 0x00, 0x00, 0x00,
  0x00, 0x00, 0x00, 0x00, 0x00, 0x00, 0x00, 0x00, 0x00, 0x00, 0x00, 0x00,
  0x00, 0x00, 0x00, 0x00, 0x00, 0x00, 0x00, 0x00, 0x00, 0x00, 0x00, 0x00,
  0x00, 0x00, 0x00, 0x00, 0x00, 0x00, 0x00, 0x00, 0x00, 0x00, 0x00, 0x00,
  0x00, 0x00, 0x00, 0x00, 0x00, 0x00, 0x00, 0x00, 0x00, 0x00, 0x00, 0x00,
  0x00, 0x00, 0x00, 0x00, 0x00, 0x00, 0x00, 0x00, 0x00, 0x00, 0x00, 0x00,
  0x00, 0x00, 0x00, 0x00, 0x00, 0x00, 0x00, 0x00, 0x00, 0x00, 0x00, 0x00,
  0x00, 0x00, 0x00, 0x00, 0x00, 0x00, 0x00, 0x00, 0x00, 0x00, 0x00, 0x00,
  0x00, 0x00, 0x00, 0x00, 0x00, 0x00, 0x00, 0x00, 0x00, 0x00, 0x00, 0x00,
  0x00, 0x00, 0x00, 0x00, 0x00, 0x00, 0x00, 0x00, 0x00, 0x00, 0x00, 0x00,
  0x00, 0x00, 0x00, 0x00, 0x00, 0x00, 0x00, 0x00, 0x00, 0x00, 0x00, 0x00,
  0x00, 0x00, 0x00, 0x00, 0x00, 0x00, 0x00, 0x00, 0x00, 0x00, 0x00, 0x00,
  0x00, 0x00, 0x00, 0x00, 0x00, 0x00, 0x00, 0x00, 0x00, 0x00, 0x00, 0x00,
  0x00, 0x00, 0x00, 0x00, 0x00, 0x00, 0x00, 0x00, 0x00, 0x00, 0x00, 0x00,
  0x00, 0x00, 0x00, 0x00, 0x00, 0x00, 0x00, 0x00, 0x00, 0x00, 0x00, 0x00,
  0x00, 0x00, 0x00, 0x00, 0x00, 0x00, 0x00, 0x00, 0x00, 0x00, 0x00, 0x00,
  0x00, 0x00, 0x00, 0x00, 0x00, 0x00, 0x00, 0x00, 0x00, 0x00, 0x00, 0x00,
  0x00, 0x00, 0x00, 0x00, 0x00, 0x00, 0x00, 0x00, 0x00, 0x00, 0x00, 0x00,
  0x00, 0x00, 0x00, 0x00, 0x40, 0x00, 0x00, 0x00, 0x36, 0xba, 0xb9, 0x37,
  0xb3, 0x29, 0xa9, 0x37, 0x37, 0xdc, 0x92, 0x37, 0xdd, 0x63, 0x8b, 0x37,
  0xf8, 0x10, 0x94, 0x37, 0x2d, 0xdc, 0xbd, 0x37, 0xec, 0x3b, 0xa5, 0x37,
  0x8c, 0x2a, 0x8d, 0x37, 0x6f, 0xa8, 0xa6, 0x37, 0xb0, 0x62, 0xb2, 0x37,
  0x50, 0x18, 0xcd, 0x37, 0xb1, 0xc2, 0xac, 0x37, 0x03, 0xdc, 0xac, 0x37,
  0x45, 0xb9, 0x83, 0x37, 0x0a, 0xa6, 0x88, 0x37, 0x4c, 0x1b, 0xc2, 0x37,
  0xbc, 0xc2, 0x8d, 0x37, 0xac, 0x73, 0xa4, 0x37, 0x36, 0x2b, 0x2f, 0x37,
  0xf1, 0x93, 0x6e, 0x37, 0x56, 0x33, 0xc1, 0x37, 0xa6, 0x31, 0xe2, 0x37,
  0x2c, 0xb4, 0xa3, 0x37, 0xb2, 0x6f, 0xf9, 0x37, 0xbd, 0x70, 0x4d, 0x37,
  0xbe, 0x05, 0x86, 0x37, 0x24, 0xf7, 0x9a, 0x37, 0x5f, 0xc9, 0xa3, 0x37,
  0x6b, 0xa6, 0xba, 0x37, 0xab, 0x40, 0xa9, 0x37, 0xc0, 0x04, 0xa0, 0x37,
  0xbb, 0x7d, 0xc6, 0x37, 0xb3, 0x66, 0x55, 0x37, 0x27, 0x25, 0x68, 0x37,
  0x02, 0xfc, 0xa4, 0x37, 0x43, 0x96, 0x98, 0x37, 0x7e, 0x16, 0xd6, 0x37,
  0x72, 0xbf, 0x91, 0x37, 0x93, 0xad, 0x9f, 0x37, 0x3b, 0x1f, 0x87, 0x37,
  0x66, 0x56, 0x95, 0x37, 0x7f, 0x7c, 0xbb, 0x37, 0xc8, 0xf3, 0xe3, 0x37,
  0xd4, 0x8f, 0x9a, 0x37, 0xd5, 0x95, 0xa9, 0x37, 0x03, 0x9d, 0xff, 0x37,
  0x22, 0x74, 0x8f, 0x37, 0x44, 0x24, 0xa5, 0x37, 0x54, 0x94, 0xc4, 0x37,
  0x26, 0xdf, 0xff, 0x37, 0x3e, 0x8a, 0xf3, 0x37, 0x14, 0x0c, 0xac, 0x37,
  0x58, 0x62, 0x9c, 0x37, 0xf1, 0x5a, 0xa5, 0x37, 0x2b, 0x16, 0x5c, 0x37,
  0x3c, 0x66, 0xc9, 0x37, 0xa3, 0xf2, 0xb9, 0x37, 0xb1, 0xe7, 0x9a, 0x37,
  0x1b, 0xe1, 0x83, 0x37, 0x95, 0x54, 0xb4, 0x37, 0x98, 0x0f, 0xa9, 0x37,
  0x28, 0x82, 0x9b, 0x37, 0xc0, 0xe5, 0xa7, 0x37, 0x17, 0x01, 0xaf, 0x37,
  0x12, 0x00, 0x00, 0x00, 0x74, 0x66, 0x6c, 0x2e, 0x70, 0x73, 0x65, 0x75,
  0x64, 0x6f, 0x5f, 0x71, 0x63, 0x6f, 0x6e, 0x73, 0x74, 0x34, 0x00, 0x00,
  0x01, 0x00, 0x00, 0x00, 0x40, 0x00, 0x00, 0x00, 0xf6, 0xf8, 0xff, 0xff,
  0x00, 0x00, 0x00, 0x01, 0x14, 0x00, 0x00, 0x00, 0x28, 0x03, 0x00, 0x00,
  0x05, 0x00, 0x00, 0x00, 0x00, 0x00, 0x00, 0x09, 0x34, 0x03, 0x00, 0x00,
  0x5c, 0xf8, 0xff, 0xff, 0x08, 0x00, 0x00, 0x00, 0x0c, 0x02, 0x00, 0x00,
  0x40, 0x00, 0x00, 0x00, 0x00, 0x00, 0x00, 0x00, 0x00, 0x00, 0x00, 0x00,
  0x00, 0x00, 0x00, 0x00, 0x00, 0x00, 0x00, 0x00, 0x00, 0x00, 0x00, 0x00,
  0x00, 0x00, 0x00, 0x00, 0x00, 0x00, 0x00, 0x00, 0x00, 0x00, 0x00, 0x00,
  0x00, 0x00, 0x00, 0x00, 0x00, 0x00, 0x00, 0x00, 0x00, 0x00, 0x00, 0x00,
  0x00, 0x00, 0x00, 0x00, 0x00, 0x00, 0x00, 0x00, 0x00, 0x00, 0x00, 0x00,
  0x00, 0x00, 0x00, 0x00, 0x00, 0x00, 0x00, 0x00, 0x00, 0x00, 0x00, 0x00,
  0x00, 0x00, 0x00, 0x00, 0x00, 0x00, 0x00, 0x00, 0x00, 0x00, 0x00, 0x00,
  0x00, 0x00, 0x00, 0x00, 0x00, 0x00, 0x00, 0x00, 0x00, 0x00, 0x00, 0x00,
  0x00, 0x00, 0x00, 0x00, 0x00, 0x00, 0x00, 0x00, 0x00, 0x00, 0x00, 0x00,
  0x00, 0x00, 0x00, 0x00, 0x00, 0x00, 0x00, 0x00, 0x00, 0x00, 0x00, 0x00,
  0x00, 0x00, 0x00, 0x00, 0x00, 0x00, 0x00, 0x00, 0x00, 0x00, 0x00, 0x00,
  0x00, 0x00, 0x00, 0x00, 0x00, 0x00, 0x00, 0x00, 0x00, 0x00, 0x00, 0x00,
  0x00, 0x00, 0x00, 0x00, 0x00, 0x00, 0x00, 0x00, 0x00, 0x00, 0x00, 0x00,
  0x00, 0x00, 0x00, 0x00, 0x00, 0x00, 0x00, 0x00, 0x00, 0x00, 0x00, 0x00,
  0x00, 0x00, 0x00, 0x00, 0x00, 0x00, 0x00, 0x00, 0x00, 0x00, 0x00, 0x00,
  0x00, 0x00, 0x00, 0x00, 0x00, 0x00, 0x00, 0x00, 0x00, 0x00, 0x00, 0x00,
  0x00, 0x00, 0x00, 0x00, 0x00, 0x00, 0x00, 0x00, 0x00, 0x00, 0x00, 0x00,
  0x00, 0x00, 0x00, 0x00, 0x00, 0x00, 0x00, 0x00, 0x00, 0x00, 0x00, 0x00,
  0x00, 0x00, 0x00, 0x00, 0x00, 0x00, 0x00, 0x00, 0x00, 0x00, 0x00, 0x00,
  0x00, 0x00, 0x00, 0x00, 0x00, 0x00, 0x00, 0x00, 0x00, 0x00, 0x00, 0x00,
  0x00, 0x00, 0x00, 0x00, 0x00, 0x00, 0x00, 0x00, 0x00, 0x00, 0x00, 0x00,
  0x00, 0x00, 0x00, 0x00, 0x00, 0x00, 0x00, 0x00, 0x00, 0x00, 0x00, 0x00,
  0x00, 0x00, 0x00, 0x00, 0x00, 0x00, 0x00, 0x00, 0x00, 0x00, 0x00, 0x00,
  0x00, 0x00, 0x00, 0x00, 0x00, 0x00, 0x00, 0x00, 0x00, 0x00, 0x00, 0x00,
  0x00, 0x00, 0x00, 0x00, 0x00, 0x00, 0x00, 0x00, 0x00, 0x00, 0x00, 0x00,
  0x00, 0x00, 0x00, 0x00, 0x00, 0x00, 0x00, 0x00, 0x00, 0x00, 0x00, 0x00,
  0x00, 0x00, 0x00, 0x00, 0x00, 0x00, 0x00, 0x00, 0x00, 0x00, 0x00, 0x00,
  0x00, 0x00, 0x00, 0x00, 0x00, 0x00, 0x00, 0x00, 0x00, 0x00, 0x00, 0x00,
  0x00, 0x00, 0x00, 0x00, 0x00, 0x00, 0x00, 0x00, 0x00, 0x00, 0x00, 0x00,
  0x00, 0x00, 0x00, 0x00, 0x00, 0x00, 0x00, 0x00, 0x00, 0x00, 0x00, 0x00,
  0x00, 0x00, 0x00, 0x00, 0x00, 0x00, 0x00, 0x00, 0x00, 0x00, 0x00, 0x00,
  0x00, 0x00, 0x00, 0x00, 0x00, 0x00, 0x00, 0x00, 0x00, 0x00, 0x00, 0x00,
  0x00, 0x00, 0x00, 0x00, 0x00, 0x00, 0x00, 0x00, 0x00, 0x00, 0x00, 0x00,
  0x00, 0x00, 0x00, 0x00, 0x00, 0x00, 0x00, 0x00, 0x00, 0x00, 0x00, 0x00,
  0x00, 0x00, 0x00, 0x00, 0x00, 0x00, 0x00, 0x00, 0x00, 0x00, 0x00, 0x00,
  0x00, 0x00, 0x00, 0x00, 0x00, 0x00, 0x00, 0x00, 0x00, 0x00, 0x00, 0x00,
  0x00, 0x00, 0x00, 0x00, 0x00, 0x00, 0x00, 0x00, 0x00, 0x00, 0x00, 0x00,
  0x00, 0x00, 0x00, 0x00, 0x00, 0x00, 0x00, 0x00, 0x00, 0x00, 0x00, 0x00,
  0x00, 0x00, 0x00, 0x00, 0x00, 0x00, 0x00, 0x00, 0x00, 0x00, 0x00, 0x00,
  0x00, 0x00, 0x00, 0x00, 0x00, 0x00, 0x00, 0x00, 0x00, 0x00, 0x00, 0x00,
  0x00, 0x00, 0x00, 0x00, 0x00, 0x00, 0x00, 0x00, 0x00, 0x00, 0x00, 0x00,
  0x00, 0x00, 0x00, 0x00, 0x00, 0x00, 0x00, 0x00, 0x00, 0x00, 0x00, 0x00,
  0x00, 0x00, 0x00, 0x00, 0x00, 0x00, 0x00, 0x00, 0x00, 0x00, 0x00, 0x00,
  0x00, 0x00, 0x00, 0x00, 0x40, 0x00, 0x00, 0x00, 0x3b, 0x2f, 0x04, 0x3d,
  0x1e, 0xcc, 0x5f, 0x3d, 0xc2, 0x93, 0x19, 0x3d, 0x50, 0x3d, 0x7c, 0x3d,
  0xa4, 0x8c, 0x3b, 0x3d, 0x2a, 0xf0, 0x20, 0x3d, 0xa9, 0xb5, 0xfe, 0x3c,
  0xbb, 0x50, 0xb5, 0x3c, 0x66, 0x82, 0x10, 0x3d, 0xfe, 0x07, 0x4f, 0x3d,
  0x0a, 0xa8, 0x0b, 0x3d, 0xfe, 0xa4, 0x8f, 0x3d, 0x11, 0x42, 0x11, 0x3d,
  0x86, 0xc2, 0x21, 0x3d, 0xa7, 0xad, 0x1b, 0x3d, 0xee, 0x7e, 0xc6, 0x3c,
  0x73, 0xab, 0xce, 0x3c, 0x6e, 0x25, 0x2d, 0x3d, 0x6a, 0x47, 0xa7, 0x3c,
  0x46, 0x19, 0x1c, 0x3d, 0x37, 0x37, 0xe6, 0x3c, 0x10, 0xb7, 0xca, 0x3c,
  0x0f, 0xff, 0x15, 0x3d, 0xcf, 0xd3, 0x1d, 0x3d, 0x04, 0x91, 0x00, 0x3d,
  0x97, 0x8c, 0x17, 0x3d, 0x8f, 0x66, 0x63, 0x3d, 0x9e, 0x27, 0x39, 0x3d,
  0x2a, 0x3f, 0x06, 0x3d, 0x1f, 0xfd, 0x8f, 0x3c, 0x09, 0xef, 0x4d, 0x3d,
  0x21, 0x0e, 0x00, 0x3d, 0xc7, 0xa9, 0x19, 0x3d, 0x8e, 0xa9, 0x11, 0x3d,
  0x9a, 0xdc, 0x63, 0x3d, 0xf7, 0xd0, 0xe4, 0x3c, 0x42, 0x84, 0x4c, 0x3d,
  0x4d, 0x0c, 0xe3, 0x3c, 0x2a, 0x97, 0xe2, 0x3c, 0x4c, 0xd3, 0x85, 0x3d,
  0x28, 0x27, 0x80, 0x3d, 0x50, 0xd5, 0x58, 0x3d, 0x30, 0x35, 0x60, 0x3d,
  0x53, 0x22, 0x18, 0x3d, 0x1b, 0xbf, 0xc1, 0x3c, 0x4b, 0x45, 0x01, 0x3d,
  0x54, 0x3e, 0x04, 0x3d, 0x05, 0x21, 0x31, 0x3d, 0x23, 0xbf, 0xd4, 0x3c,
  0xd2, 0x51, 0x45, 0x3d, 0x60, 0x92, 0x36, 0x3d, 0x76, 0x1b, 0x12, 0x3d,
  0x8e, 0x15, 0x90, 0x3c, 0x29, 0xfb, 0x0a, 0x3d, 0x05, 0xf7, 0xe8, 0x3c,
  0x0e, 0xfa, 0x2d, 0x3d, 0xf6, 0xee, 0x57, 0x3d, 0xd9, 0xf7, 0x0b, 0x3d,
  0x96, 0x9e, 0x06, 0x3d, 0x56, 0x1b, 0x3a, 0x3d, 0xed, 0x6f, 0xd1, 0x3c,
  0xc5, 0xdf, 0x40, 0x3d, 0x66, 0x24, 0x49, 0x3d, 0x39, 0xba, 0x63, 0x3d,
  0x12, 0x00, 0x00, 0x00, 0x74, 0x66, 0x6c, 0x2e, 0x70, 0x73, 0x65, 0x75,
  0x64, 0x6f, 0x5f, 0x71, 0x63, 0x6f, 0x6e, 0x73, 0x74, 0x33, 0x00, 0x00,
  0x02, 0x00, 0x00, 0x00, 0x40, 0x00, 0x00, 0x00, 0x40, 0x00, 0x00, 0x00,
  0x4e, 0xfc, 0xff, 0xff, 0x00, 0x00, 0x00, 0x01, 0x14, 0x00, 0x00, 0x00,
  0x24, 0x03, 0x00, 0x00, 0x04, 0x00, 0x00, 0x00, 0x00, 0x00, 0x00, 0x02,
  0x30, 0x03, 0x00, 0x00, 0xb4, 0xfb, 0xff, 0xff, 0x08, 0x00, 0x00, 0x00,
  0x08, 0x02, 0x00, 0x00, 0x40, 0x00, 0x00, 0x00, 0x00, 0x00, 0x00, 0x00,
  0x00, 0x00, 0x00, 0x00, 0x00, 0x00, 0x00, 0x00, 0x00, 0x00, 0x00, 0x00,
  0x00, 0x00, 0x00, 0x00, 0x00, 0x00, 0x00, 0x00, 0x00, 0x00, 0x00, 0x00,
  0x00, 0x00, 0x00, 0x00, 0x00, 0x00, 0x00, 0x00, 0x00, 0x00, 0x00, 0x00,
  0x00, 0x00, 0x00, 0x00, 0x00, 0x00, 0x00, 0x00, 0x00, 0x00, 0x00, 0x00,
  0x00, 0x00, 0x00, 0x00, 0x00, 0x00, 0x00, 0x00, 0x00, 0x00, 0x00, 0x00,
  0x00, 0x00, 0x00, 0x00, 0x00, 0x00, 0x00, 0x00, 0x00, 0x00, 0x00, 0x00,
  0x00, 0x00, 0x00, 0x00, 0x00, 0x00, 0x00, 0x00, 0x00, 0x00, 0x00, 0x00,
  0x00, 0x00, 0x00, 0x00, 0x00, 0x00, 0x00, 0x00, 0x00, 0x00, 0x00, 0x00,
  0x00, 0x00, 0x00, 0x00, 0x00, 0x00, 0x00, 0x00, 0x00, 0x00, 0x00, 0x00,
  0x00, 0x00, 0x00, 0x00, 0x00, 0x00, 0x00, 0x00, 0x00, 0x00, 0x00, 0x00,
  0x00, 0x00, 0x00, 0x00, 0x00, 0x00, 0x00, 0x00, 0x00, 0x00, 0x00, 0x00,
  0x00, 0x00, 0x00, 0x00, 0x00, 0x00, 0x00, 0x00, 0x00, 0x00, 0x00, 0x00,
  0x00, 0x00, 0x00, 0x00, 0x00, 0x00, 0x00, 0x00, 0x00, 0x00, 0x00, 0x00,
  0x00, 0x00, 0x00, 0x00, 0x00, 0x00, 0x00, 0x00, 0x00, 0x00, 0x00, 0x00,
  0x00, 0x00, 0x00, 0x00, 0x00, 0x00, 0x00, 0x00, 0x00, 0x00, 0x00, 0x00,
  0x00, 0x00, 0x00, 0x00, 0x00, 0x00, 0x00, 0x00, 0x00, 0x00, 0x00, 0x00,
  0x00, 0x00, 0x00, 0x00, 0x00, 0x00, 0x00, 0x00, 0x00, 0x00, 0x00, 0x00,
  0x00, 0x00, 0x00, 0x00, 0x00, 0x00, 0x00, 0x00, 0x00, 0x00, 0x00, 0x00,
  0x00, 0x00, 0x00, 0x00, 0x00, 0x00, 0x00, 0x00, 0x00, 0x00, 0x00, 0x00,
  0x00, 0x00, 0x00, 0x00, 0x00, 0x00, 0x00, 0x00, 0x00, 0x00, 0x00, 0x00,
  0x00, 0x00, 0x00, 0x00, 0x00, 0x00, 0x00, 0x00, 0x00, 0x00, 0x00, 0x00,
  0x00, 0x00, 0x00, 0x00, 0x00, 0x00, 0x00, 0x00, 0x00, 0x00, 0x00, 0x00,
  0x00, 0x00, 0x00, 0x00, 0x00, 0x00, 0x00, 0x00, 0x00, 0x00, 0x00, 0x00,
  0x00, 0x00, 0x00, 0x00, 0x00, 0x00, 0x00, 0x00, 0x00, 0x00, 0x00, 0x00,
  0x00, 0x00, 0x00, 0x00, 0x00, 0x00, 0x00, 0x00, 0x00, 0x00, 0x00, 0x00,
  0x00, 0x00, 0x00, 0x00, 0x00, 0x00, 0x00, 0x00, 0x00, 0x00, 0x00, 0x00,
  0x00, 0x00, 0x00, 0x00, 0x00, 0x00, 0x00, 0x00, 0x00, 0x00, 0x00, 0x00,
  0x00, 0x00, 0x00, 0x00, 0x00, 0x00, 0x00, 0x00, 0x00, 0x00, 0x00, 0x00,
  0x00, 0x00, 0x00, 0x00, 0x00, 0x00, 0x00, 0x00, 0x00, 0x00, 0x00, 0x00,
  0x00, 0x00, 0x00, 0x00, 0x00, 0x00, 0x00, 0x00, 0x00, 0x00, 0x00, 0x00,
  0x00, 0x00, 0x00, 0x00, 0x00, 0x00, 0x00, 0x00, 0x00, 0x00, 0x00, 0x00,
  0x00, 0x00, 0x00, 0x00, 0x00, 0x00, 0x00, 0x00, 0x00, 0x00, 0x00, 0x00,
  0x00, 0x00, 0x00, 0x00, 0x00, 0x00, 0x00, 0x00, 0x00, 0x00, 0x00, 0x00,
  0x00, 0x00, 0x00, 0x00, 0x00, 0x00, 0x00, 0x00, 0x00, 0x00, 0x00, 0x00,
  0x00, 0x00, 0x00, 0x00, 0x00, 0x00, 0x00, 0x00, 0x00, 0x00, 0x00, 0x00,
  0x00, 0x00, 0x00, 0x00, 0x00, 0x00, 0x00, 0x00, 0x00, 0x00, 0x00, 0x00,
  0x00, 0x00, 0x00, 0x00, 0x00, 0x00, 0x00, 0x00, 0x00, 0x00, 0x00, 0x00,
  0x00, 0x00, 0x00, 0x00, 0x00, 0x00, 0x00, 0x00, 0x00, 0x00, 0x00, 0x00,
  0x00, 0x00, 0x00, 0x00, 0x00, 0x00, 0x00, 0x00, 0x00, 0x00, 0x00, 0x00,
  0x00, 0x00, 0x00, 0x00, 0x00, 0x00, 0x00, 0x00, 0x00, 0x00, 0x00, 0x00,
  0x00, 0x00, 0x00, 0x00, 0x00, 0x00, 0x00, 0x00, 0x00, 0x00, 0x00, 0x00,
  0x00, 0x00, 0x00, 0x00, 0x00, 0x00, 0x00, 0x00, 0x00, 0x00, 0x00, 0x00,
  0x00, 0x00, 0x00, 0x00, 0x40, 0x00, 0x00, 0x00, 0xc6, 0xf0, 0x1b, 0x39,
  0x4b, 0x02, 0x84, 0x39, 0x89, 0x2d, 0x35, 0x39, 0x2c, 0xc9, 0x94, 0x39,
  0x69, 0x41, 0x5d, 0x39, 0x9b, 0xdc, 0x3d, 0x39, 0x2b, 0x3e, 0x16, 0x39,
  0xb0, 0xe6, 0xd5, 0x38, 0xfc, 0x7a, 0x2a, 0x39, 0x15, 0x3d, 0x74, 0x39,
  0x5a, 0xc1, 0x24, 0x39, 0xca, 0x75, 0xa9, 0x39, 0x19, 0x5d, 0x2b, 0x39,
  0xc5, 0xd4, 0x3e, 0x39, 0x1a, 0xa8, 0x37, 0x39, 0x53, 0x2b, 0xea, 0x38,
  0xe9, 0xcf, 0xf3, 0x38, 0x8a, 0x43, 0x4c, 0x39, 0x95, 0x57, 0xc5, 0x38,
  0x10, 0x27, 0x38, 0x39, 0x7d, 0xcb, 0x07, 0x39, 0x94, 0x25, 0xef, 0x38,
  0x17, 0xf4, 0x30, 0x39, 0x21, 0x31, 0x3a, 0x39, 0x1a, 0xac, 0x17, 0x39,
  0x10, 0xc9, 0x32, 0x39, 0x67, 0x22, 0x86, 0x39, 0x37, 0x6e, 0x5a, 0x39,
  0x96, 0x5f, 0x1e, 0x39, 0xc1, 0xdd, 0xa9, 0x38, 0xa2, 0xf1, 0x72, 0x39,
  0xb1, 0x11, 0x17, 0x39, 0x83, 0x47, 0x35, 0x39, 0x30, 0xd7, 0x2b, 0x39,
  0x08, 0x68, 0x86, 0x39, 0x2c, 0xf8, 0x06, 0x39, 0xa8, 0x45, 0x71, 0x39,
  0x2a, 0xed, 0x05, 0x39, 0x12, 0xa8, 0x05, 0x39, 0x56, 0xe0, 0x9d, 0x39,
  0x38, 0x2f, 0x97, 0x39, 0x60, 0xcd, 0x7f, 0x39, 0x45, 0x40, 0x84, 0x39,
  0xb5, 0x79, 0x33, 0x39, 0xfe, 0x90, 0xe4, 0x38, 0xc7, 0x80, 0x18, 0x39,
  0x96, 0x02, 0x1c, 0x39, 0x5e, 0xf6, 0x50, 0x39, 0x2f, 0xfb, 0xfa, 0x38,
  0x1a, 0xc8, 0x68, 0x39, 0x23, 0x62, 0x57, 0x39, 0x90, 0x5d, 0x2c, 0x39,
  0x94, 0xfa, 0xa9, 0x38, 0x67, 0xf5, 0x23, 0x39, 0xa2, 0x6a, 0x09, 0x39,
  0x61, 0x3e, 0x4d, 0x39, 0xa0, 0xbd, 0x7e, 0x39, 0x80, 0x1f, 0x25, 0x39,
  0x29, 0xd0, 0x1e, 0x39, 0xbc, 0x8d, 0x5b, 0x39, 0xb6, 0x13, 0xf7, 0x38,
  0x85, 0x89, 0x63, 0x39, 0x8c, 0x4a, 0x6d, 0x39, 0xc1, 0x53, 0x86, 0x39,
  0x12, 0x00, 0x00, 0x00, 0x74, 0x66, 0x6c, 0x2e, 0x70, 0x73, 0x65, 0x75,
  0x64, 0x6f, 0x5f, 0x71, 0x63, 0x6f, 0x6e, 0x73, 0x74, 0x32, 0x00, 0x00,
  0x01, 0x00, 0x00, 0x00, 0x40, 0x00, 0x00, 0x00, 0x9e, 0xff, 0xff, 0xff,
  0x00, 0x00, 0x00, 0x01, 0x14, 0x00, 0x00, 0x00, 0x30, 0x00, 0x00, 0x00,
  0x03, 0x00, 0x00, 0x00, 0x00, 0x00, 0x00, 0x09, 0x3c, 0x00, 0x00, 0x00,
  0x04, 0xff, 0xff, 0xff, 0x08, 0x00, 0x00, 0x00, 0x10, 0x00, 0x00, 0x00,
  0x01, 0x00, 0x00, 0x00, 0x00, 0x00, 0x00, 0x00, 0x00, 0x00, 0x00, 0x00,
  0x01, 0x00, 0x00, 0x00, 0xde, 0x74, 0x16, 0x3a, 0x12, 0x00, 0x00, 0x00,
  0x74, 0x66, 0x6c, 0x2e, 0x70, 0x73, 0x65, 0x75, 0x64, 0x6f, 0x5f, 0x71,
  0x63, 0x6f, 0x6e, 0x73, 0x74, 0x31, 0x00, 0x00, 0x02, 0x00, 0x00, 0x00,
  0x01, 0x00, 0x00, 0x00, 0x40, 0x00, 0x00, 0x00, 0x00, 0x00, 0x16, 0x00,
  0x1c, 0x00, 0x18, 0x00, 0x17, 0x00, 0x10, 0x00, 0x0c, 0x00, 0x08, 0x00,
  0x00, 0x00, 0x00, 0x00, 0x00, 0x00, 0x07, 0x00, 0x16, 0x00, 0x00, 0x00,
  0x00, 0x00, 0x00, 0x01, 0x14, 0x00, 0x00, 0x00, 0x30, 0x00, 0x00, 0x00,
  0x02, 0x00, 0x00, 0x00, 0x00, 0x00, 0x00, 0x02, 0x3c, 0x00, 0x00, 0x00,
  0x7c, 0xff, 0xff, 0xff, 0x08, 0x00, 0x00, 0x00, 0x10, 0x00, 0x00, 0x00,
  0x01, 0x00, 0x00, 0x00, 0x00, 0x00, 0x00, 0x00, 0x00, 0x00, 0x00, 0x00,
  0x01, 0x00, 0x00, 0x00, 0x03, 0xe5, 0x5c, 0x37, 0x11, 0x00, 0x00, 0x00,
  0x74, 0x66, 0x6c, 0x2e, 0x70, 0x73, 0x65, 0x75, 0x64, 0x6f, 0x5f, 0x71,
  0x63, 0x6f, 0x6e, 0x73, 0x74, 0x00, 0x00, 0x00, 0x01, 0x00, 0x00, 0x00,
  0x01, 0x00, 0x00, 0x00, 0x00, 0x00, 0x16, 0x00, 0x20, 0x00, 0x1c, 0x00,
  0x1b, 0x00, 0x14, 0x00, 0x10, 0x00, 0x0c, 0x00, 0x00, 0x00, 0x00, 0x00,
  0x08, 0x00, 0x07, 0x00, 0x16, 0x00, 0x00, 0x00, 0x00, 0x00, 0x00, 0x01,
  0x18, 0x00, 0x00, 0x00, 0x2c, 0x00, 0x00, 0x00, 0x4c, 0x00, 0x00, 0x00,
  0x01, 0x00, 0x00, 0x00, 0x00, 0x00, 0x00, 0x09, 0x64, 0x00, 0x00, 0x00,
  0x02, 0x00, 0x00, 0x00, 0xff, 0xff, 0xff, 0xff, 0x07, 0x00, 0x00, 0x00,
  0x0c, 0x00, 0x0c, 0x00, 0x00, 0x00, 0x00, 0x00, 0x08, 0x00, 0x04, 0x00,
  0x0c, 0x00, 0x00, 0x00, 0x08, 0x00, 0x00, 0x00, 0x14, 0x00, 0x00, 0x00,
  0x01, 0x00, 0x00, 0x00, 0x00, 0x00, 0x00, 0x00, 0x00, 0x00, 0x00, 0x00,
  0x00, 0x00, 0x00, 0x00, 0x01, 0x00, 0x00, 0x00, 0x72, 0x80, 0x00, 0x3c,
  0x1e, 0x00, 0x00, 0x00, 0x73, 0x65, 0x72, 0x76, 0x69, 0x6e, 0x67, 0x5f,
  0x64, 0x65, 0x66, 0x61, 0x75, 0x6c, 0x74, 0x5f, 0x6b, 0x65, 0x72, 0x61,
  0x73, 0x5f, 0x74, 0x65, 0x6e, 0x73, 0x6f, 0x72, 0x3a, 0x30, 0x00, 0x00,
  0x02, 0x00, 0x00, 0x00, 0x01, 0x00, 0x00, 0x00, 0x07, 0x00, 0x00, 0x00,
  0x01, 0x00, 0x00, 0x00, 0x10, 0x00, 0x00, 0x00, 0x0c, 0x00, 0x10, 0x00,
  0x0f, 0x00, 0x00, 0x00, 0x08, 0x00, 0x04, 0x00, 0x0c, 0x00, 0x00, 0x00,
  0x09, 0x00, 0x00, 0x00, 0x04, 0x00, 0x00, 0x00, 0x00, 0x00, 0x00, 0x09,
};
unsigned int new_sin_predictor_tflite_len = 10512;
